#version: 0.2
ĠĠ ĠĠ
ĠĠĠĠ ĠĠĠĠ
i n
ĠĠ Ġ
e r
r e
o n
s t
a t
Ġ t
d e
Ġ 0
Ġ *
e n
Ġ =
o r
Ġ ĉ
Ġ Ċ
0 0
s e
a l
) ;
* *
/ /
- -
l e
Ġ c
a r
c t
Ġ {
ĠĠĠĠ ĠĠĠ
i t
a n
i on
Ġ (
h e
Ġ f
ĠĠĠĠĠĠĠĠ ĠĠĠĠĠĠĠĠ
i c
i f
m e
u r
i s
Ġ p
Ġ }
in t
r o
u n
e t
Ġĉ ĉ
in g
- >
Ġ s
e d
u t
Ġ a
Ġ n
Ġ re
e s
Ġ b
Ġt he
Ġ #
-- --
l o
** **
i d
Ġ "
st r
= =
p e
en t
Ġ o
ur n
de f
m p
a c
Ġ //
t urn
e x
Ġ v
u e
a d
Ġ m
a me
ĠĠĠĠĠĠĠĠ ĠĠĠ
Ġ S
a s
t r
at e
in e
( )
Ġ* /
i g
i l
e l
a g
Ġ T
u l
Ġ w
f f
c o
" ,
Ġ /
Ġ d
ĉ ĉ
t h
Ġ 1
Ġ in
Ġ C
I N
y pe
c e
: :
ĠĠĠĠ Ġ
Ġ <
Ġ A
a p
00 00
I n
o l
def ine
a b
Ġ i
Ġ st
an d
E R
g et
c h
Ġc on
u ct
o t
Ġ '
Ġ u
er r
u m
p t
Ġt h
i z
Ġt o
u b
Ġ l
se t
Ġ int
at ion
c k
_ _
Ġ if
str uct
o de
i v
Ġ &
re turn
---- ----
) ,
ct ion
Ġ P
**** ****
a m
i st
R E
or t
// //
at a
Ġ/ *
R e
s s
c l
S T
ex t
c on
== ==
en d
Ġ -
3 2
iz e
t e
a y
u s
O N
Ġ is
ĠĠĠĠĠĠĠĠ ĠĠĠĠĠĠĠ
Ġo f
Ġ h
Ġre turn
a se
Ġ +
t er
Ġ D
E N
( "
de v
Ġ M
ab le
i le
e w
al ue
Ġ L
o p
Ġ 2
Ġ N
Ġf or
Ġ I
Ġ F
ag e
A T
l ic
) )
e ct
u p
Ġ @
o id
O R
ul t
Ġ G
Ġ B
Ġ e
Ġĉĉ ĉ
' ,
S E
er t
al l
I T
M A
o d
Ġ r
i b
as s
ac k
Ġ E
er s
o m
Ġ :
Ġst at
A L
i m
pt ion
Ġ g
A R
i r
Ġcon st
Ġth is
D E
f o
Ġ= =
t o
( );
re s
0 1
C on
L E
n t
Ġ err
p ar
it h
o w
Ġv oid
un ction
m ent
Ġ !
h t
Ġ |
Ġ R
Ġstat ic
Ġ and
Ġĉĉ ĉĉ
S t
k e
lo ck
q u
ig n
s c
p r
ub lic
} ,
U L
ĠĠĠĠĠĠĠĠĠĠĠĠĠĠĠĠ ĠĠĠĠĠĠĠĠĠĠĠĠĠĠĠĠ
b j
Ġb e
it e
Ġ O
i me
b u
ac e
f or
str ing
Ġ $
a v
p ut
r r
6 4
r i
o f
//// ////
d er
s p
Ġ se
ic e
es s
a re
Ġ [
C T
Ġ _
F F
o s
q ue
Ġ or
Ġ U
-------- --------
******** ********
i p
an g
Ġ un
t ype
1 6
o ut
m a
Ġ de
T ype
ar t
I D
A N
/ *
d ata
Ġp ro
tr ing
d r
==== ====
e st
p ro
00 0
o ur
th is
E x
n ame
cl u
ul l
Ġ W
Ġc h
Ġi mp
Ġt r
p l
ĠĠĠĠ ĠĠ
1 0
o un
Ġ ex
ig ht
v al
ro m
1 2
clu de
a in
v er
Ġ! =
el se
ĠĠĠĠĠĠĠĠĠĠĠĠĠĠĠĠ ĠĠĠ
ar g
I C
Ġ struct
bj ect
Ġn ew
o c
y p
at h
Ġ >
s er
Ġ on
Ġ H
N ame
de x
t ext
p ort
Ġp ublic
S I
) );
en se
ĠĠĠĠĠĠĠĠ Ġ
u re
Ġ __
A D
in d
i o
d d
par am
l f
] ,
1 1
s ize
o int
e m
l en
it y
o mp
" );
T R
Ġt ype
i el
o o
f ig
Ġc l
s h
un c
D e
in clude
P I
iel d
i al
i re
p er
Ġ )
Ġn ot
Ġ it
our ce
Ġ/ **
Ġ V
Ġ ,
. .
a ct
Ġ \
i de
P ro
Ġ an
Ġ me
v ent
M E
Ġw ith
o ol
que st
lo c
U T
C H
Ġimp ort
re e
Ġ 3
re g
ic ense
s ign
a st
Ġb y
m s
c c
a k
S S
R O
ke y
Ġ %
Ġu int
Ġ& &
re ss
UL L
re ad
Ġ def
at or
ib ut
( &
Ġn ame
L O
P E
S tring
l ag
v e
Ġ= >
Ġ} ,
iv e
Ġ< <
Ġ 4
l y
Ġ// /
co de
it ion
# #
T I
) .
as k
Ġu se
5 6
Ġ: =
2 0
en er
E rr
at ch
x ff
Ġ j
on g
a il
Ġ else
v alue
A C
o re
Ġv alue
sign ed
al se
for m
l l
Ġf unction
Ġ get
8 0
I S
C O
R es
lo w
r ite
U N
Ġw h
a ult
E D
Ġ In
le ment
ar y
Ġ x
Ġ set
i x
A B
Ġth at
I F
g th
o st
E n
Ġre s
ff er
p p
in fo
Ġ y
] ;
Ġs ize
an s
ro w
M P
2 3
b er
+ +
Ġ string
ers ion
on e
op y
ĠT he
en ame
or y
at ed
Ġa s
C L
i ent
e c
" :
il l
Ġerr or
1 5
ff set
IN T
Ġs h
t p
an ce
Ġf rom
ĠL icense
u st
E X
Ġ} ;
I G
Ġ al
re ak
T o
m ap
Ġ Re
he ck
1 3
I d
p tr
ad d
re f
//////// ////////
G E
l in
co m
an t
con st
ĠĠĠĠĠĠĠĠĠĠĠĠĠĠĠĠ ĠĠĠĠĠĠĠĠ
ar r
ce ption
pe c
mp l
U S
or d
ĠN ULL
v ar
u le
Ġf unc
( '
1 4
() ,
r c
er n
Ġch ar
Ġf ile
ar d
m o
Ġn ull
Ġp r
V alue
ang e
un t
ĠT h
8 9
ro up
a x
ac he
ĠĠĠĠĠĠĠĠĠĠĠĠĠĠĠĠ ĠĠĠĠĠĠĠ
ist er
C l
S et
Ġ( (
Ġcl ass
st at
Ġ en
f unction
Ġd ata
r y
e e
L ist
re ate
l ine
dev ice
" )
b y
Ġtr ue
Ġn il
g r
yp ename
S H
i es
iv ate
Ġ| |
lag s
Ġ lo
Ġ .
Ġ( !
Ġo ut
ad er
Ġ at
D ata
Ġ k
c p
", "
Ġse lf
c ase
bu f
s y
I O
C C
Ġf alse
4 0
or k
C h
end if
u int
ER R
ct ed
G et
re am
======== ========
IN G
o u
a w
H E
m d
an n
0000 0000
ur re
re t
] .
Err or
Ġ 5
Ġd o
P P
C ON
x f
um ber
av e
O P
Ġ );
2 4
Ġv ar
O T
1 8
Ġb u
v ice
Ġv al
( (
oun d
f ile
p ert
0 3
oun t
T Y
ĠTh is
S K
t ain
p h
in al
um ent
il d
en s
arr ay
of t
I P
RE G
T H
C K
" ;
2 5
it s
Ġa re
st ate
w are
S Y
Ġc ase
T r
ac h
if i
b ack
i str
U n
th er
**************** ****************
I L
urre nt
Ġc omp
B u
st em
S C
Ġp ar
mp le
t ro
P ar
O L
or m
---------------- ----------------
v oid
A t
I ON
[ ]
1 9
l ist
Ġt ypename
o g
in it
Ġu s
L A
Ġre g
on se
ption s
and le
e f
Ġ le
U R
1 7
o ck
lo at
n ew
n d
d ate
Ġl en
= "
n c
e y
ad dr
x b
3 3
C E
Ġ 8
ect or
t y
b o
< /
s k
Ġb ool
Ġw e
qu al
t x
r ame
D R
0 4
O bject
Ġa ss
te st
M O
ST AT
K ey
a f
() .
In fo
r ight
S er
as h
u se
ul d
SE T
ap p
tr ibut
co unt
p c
b e
om m
Ġc an
g er
o uld
) :
en ce
0 2
co l
le ct
e p
EN T
ode l
OR T
ame ter
ow n
5 5
er e
N E
9 9
pr int
Ex ception
i ew
f ace
r it
er y
Ġ arg
l i
S e
n o
ar get
y stem
O ST
u x
S ize
() );
un signed
ĠS tring
Ġ `
C ol
Ġ 6
Ġt est
S c
st ance
t es
AB LE
n ode
co mp
A P
c ess
Ġa dd
err or
istr ibut
f er
k en
) {
MA SK
m l
Ġst d
Ġl ong
I M
f s
T E
Ġ ext
2 2
C R
Ġ ?
me m
in ed
w rite
sp ace
Ġ end
g e
. _
m t
cc ess
oft ware
3 0
s on
V AL
x c
in dex
x a
len gth
x FF
7 7
ĠC on
In dex
od ule
se lf
Ġw ill
T ime
2 8
Ġs c
TY PE
T est
Ġpr ivate
St ate
u al
Ġ X
Ġĉĉĉĉ ĉ
Ġres ult
p ath
u d
t ime
C M
lo g
pert y
u es
n um
A S
AR T
s um
ĠĠĠĠĠĠĠĠ ĠĠĠĠĠ
Ġ+ =
il ter
if ic
n e
( $
A M
F ile
B U
ct x
oint er
m b
de d
p s
: "
ation s
C omp
N ode
b reak
P os
t ent
val id
Ġ K
ann el
st art
qu ire
d b
ut h
p onse
opy right
rr ay
0 8
Ġ Q
m in
Ġt e
and l
ir st
mpl ate
Ġ 7
id th
if y
Con text
Re g
v el
() )
0000 00
es c
ch ar
ri pt
le an
St at
ub le
a ke
V E
by te
cl ass
Ġl ist
Ġun signed
Z E
ĠA N
Ġ he
Ġs pec
U E
F ield
Re quest
b ase
Con fig
S P
Ġun der
ion s
ent ry
S R
O UT
con fig
B y
I R
ĠĠĠĠĠĠĠĠ ĠĠ
tro l
8 8
Ġc all
w w
ind ow
w ork
Ġ OR
', '
M et
de nt
t tp
5 0
Ġt ime
p os
Ġ/* !
N O
l ay
2 7
U P
Ġp er
Ġ key
Ġ J
Ġs y
Ġus ing
d is
mp ty
) (
F A
ĉĉ ĉĉ
ma x
p re
N U
Ġass ert
th od
ĠĠĠĠĠĠĠĠ ĠĠĠĠ
: //
bu g
ff ff
are nt
tr y
res ult
s w
4 4
] )
R L
O OST
lo ad
ĠT HE
r g
E vent
lin k
2 6
s ub
x e
Ġre t
2 1
n et
SI ZE
mo ve
[ '
Ġc ode
E S
Ġu p
T h
Ġo bject
L en
ĠG et
se d
ur ation
## ##
D AT
up port
V ER
pr iv
2 9
g in
De f
P RO
a a
t ing
a it
56 7
ss age
us h
T O
A dd
he d
* /
p i
M ap
x d
Ġtype def
P C
ĠĠĠĠĠĠĠĠĠĠĠĠĠĠĠĠ ĠĠĠĠĠĠĠĠĠĠĠ
SY S
Ġ IN
3 4
F I
//////////////// ////////////////
Ġf ield
ot o
8 6
d i
P L
ab el
23 4
stat us
IF T
andl er
r t
! !
Ġf inal
iv er
v ed
EX T
is s
ĠI f
h w
j ect
r ap
In t
Ġ z
v err
im it
' )
Ġ/*! <
le te
Ġre quest
3 6
yp es
f lags
ĠS t
S h
Ġs o
on ent
m m
i se
Ġb reak
Ġ1 6
ut o
T C
C ode
p en
D C
l d
av a
pe cted
m se
ar ch
H e
Ġuse d
ite m
++ )
T ext
Ġ str
f d
A ME
ess age
> (
a mple
5 4
s g
Ġ[ ]
tribut e
m ary
V al
Ġan y
ĠC ON
0 6
L IN
le d
verr ide
Ġp ack
Ġ all
P R
re q
& &
t able
m ode
D B
Ġre ad
567 89
A rray
de sc
Ġ id
p oint
3 1
ĠO F
' :
Ġd is
it ch
ar k
m ask
le ction
ĠC opyright
ĠB OOST
o ffset
b it
Ġ array
S U
Ġc ol
} )
lo b
234 56789
Ġy ou
Ġa d
Ġm ay
at es
e vent
f ree
ut il
0 7
Ġh ave
Ġdef ault
3 7
P O
at tr
Ġn umber
I te
PI O
m at
ic k
Ġ 9
L I
ms g
Ġst ate
P ath
ter n
Ġn o
com m
0 5
ĠS et
c es
Ġsh ould
6 6
Cl ass
MA X
Ġs er
K E
Ġ> =
S O
ire ct
con d
Ġv ersion
ot e
st d
ĠĠĠĠĠĠĠĠĠĠĠĠĠĠĠĠ Ġ
an ag
3 8
c ur
ĠE X
3 9
3 5
f ield
D O
ic h
ut e
A A
in k
F T
bu ffer
01 23456789
b l
oo lean
x x
Ġ q
" "
le t
Ġsize of
p y
Ġor g
B IT
D I
us er
def ault
.. .
IT Y
Ġc opy
y le
al loc
' ]
ĠĠĠĠĠĠĠĠ ĠĠĠĠĠĠ
p ress
Ġo ffset
t ail
Ġd istribut
et urn
omm and
um n
c s
sum mary
ern al
T L
W R
Ġ ro
X X
CL K
on t
un d
ĠE x
SH IFT
Ġin dex
n ext
O ut
ir q
Ġh ttp
b lock
Ġ* )
C F
pl ay
ass ert
Ġn e
Ġs ub
a ction
Ġ Y
Ġth row
0 9
m age
r l
' s
able d
I s
" ),
} ;
x F
ol d
B A
D MA
' ;
M essage
Ġ< /
R AN
E qual
G L
ERR OR
ĠI S
P U
d o
ĠG L
Stat us
Ġn ode
co re
ial iz
g roup
Ġa pp
n ing
que ue
ce pt
ST R
Ġint er
v m
Ġc heck
or g
E lement
Ġst art
Ġh as
el l
loc al
it er
0123456789 0123456789
T X
' t
Res ponse
v ert
Ġ* *
s o
Ġcon fig
c md
g le
o k
M C
() {
UL T
cp u
con text
f t
Ġp re
ĠG ener
c all
lin ux
8 7
oc ument
cl ient
Ġc om
S A
L oc
CT RL
Ġo per
DAT A
in put
D esc
x E
A l
Ġin put
p ublic
cl k
================ ================
C ount
pro to
c reate
ht tp
Q u
or s
M B
Ġ1 0
Ġm ax
M S
F or
Ġname space
u pt
Ġĉĉĉĉ ĉĉ
AT E
o bject
ifi ed
DE V
O f
int er
Ġb ut
A n
F IG
Ġwh en
im er
T A
Res ult
U p
Ġ device
5 9
Ġme m
e b
Ġd r
G roup
g oto
A d
ĠU n
if t
ri ption
P ORT
ag es
i e
8 4
Ġon ly
ile d
u me
] );
ic s
print f
ir t
le ar
Ġ> >
Ġte mplate
sc all
Ġm ust
p ack
anag er
Ġc urrent
o b
H T
il der
w ord
EN D
l at
gr am
oo k
Bu ffer
F rom
Ser vice
Ġcon text
7 4
re quest
ĠAN Y
af e
( _
F orm
Ġm ode
c i
Ġe vent
MO DE
Ġb it
od y
Ġ( *
m iss
Ite m
( *
n ot
S tr
, -
pl y
Ġin line
Q U
Ġme thod
ic es
GE T
t in
a pe
all y
0000 000
err upt
C I
st ream
Ġbu ffer
ifi er
Ġre quire
c f
Ġuint ptr
P A
ib le
ĠĠĠĠĠĠĠĠĠĠĠĠĠĠĠĠ ĠĠĠĠĠ
AL L
s i
D L
Ġm od
ĠĠĠĠĠĠĠĠĠĠĠĠĠĠĠĠ ĠĠĠĠ
s rc
W ith
Ġ| =
pe ct
ĠN OT
R A
t he
6 5
Ġdef ined
Ġs ource
E L
= >
Ġo ther
4 3
t on
O r
LO CK
ĠĠĠĠĠĠĠĠĠĠĠĠĠĠĠĠ ĠĠ
n ull
ĠRe g
Ġwh ich
IT H
Ġĉ ĠĠĠ
arg s
C all
a iled
St ream
al e
CT ION
ĠP ro
Ġin it
lo se
P H
in s
t il
" },
L og
Cl ient
p u
In ter
Ġf loat
ĠS ystem
Ġ ->
op s
ap i
m it
D is
Ġon e
A rg
n er
v ide
c heck
ap ter
i a
1 00
Ġs oftware
en c
ameter s
5 7
u ck
ĠS ee
h er
Ġf lags
lob al
] [
d ir
T ER
v ersion
M I
Pro perty
le ase
Ġ" \
m ut
6 9
ne ction
tain er
' );
In put
BU G
ĠD E
Ġb lock
t a
am s
qu ery
ĠP ublic
d ma
y s
F O
N D
R X
ur l
ow er
P r
c ord
S B
if def
Ġtr ans
Ġdistribut ed
" >
f rame
f e
p age
" +
fo re
Ġout put
o bj
Ġpro to
oo st
Ġn um
Ġb ase
f unc
P IN
V iew
O M
CH AN
Ġlo g
ĠW AR
form at
P tr
id er
E T
), ("
ic al
tr ans
at ure
ĠĠĠĠĠĠĠĠĠĠĠĠĠĠĠĠĠĠĠĠĠĠĠĠ ĠĠĠĠ
ri x
F LA
N ot
6 7
d ing
RE S
f loat
t s
B ase
4 8
x C
er o
P ER
f c
O n
N ew
Ġj ava
F S
a mp
c urrent
d u
j son
form ation
c m
ĠG NU
Ġ2 01
h od
at er
D U
t ot
ar sh
con n
9 7
l ib
r x
ĠA R
ol ic
RE AD
f rom
c ast
o ver
\ \
ĠGener al
c b
h ost
id x
STAT US
Ġ define
irt ual
W A
C N
M odel
ĠR eturn
at ive
x B
Ġ< =
Ġm ap
T able
ĠWAR RAN
a use
Re ad
o pt
Ġu ser
AC K
ĠS T
w h
he ad
or der
Ġstat us
IN VAL
r aw
Ġp ath
res ent
Ġ} );
Ġval ues
ĠS oftware
fer ence
8 5
G ener
> ::
4 7
ition s
B e
Ġdo uble
q l
Ġs u
6 0
ting s
L e
Ġ dev
AC E
l u
it or
ĠĠĠĠĠĠĠĠĠĠĠĠĠĠĠĠ ĠĠĠĠĠĠ
Ġde sc
P F
y n
IC E
M L
F OR
om ain
TI M
Ġc ount
i able
Ġre sp
4 9
d iv
unt ime
AD DR
Ġp os
V ar
| |
ol low
s afe
IT E
M ode
param s
Re f
Ġf irst
A PI
ri ef
Tr ans
n def
O ptions
N AME
n g
n s
ĠĠĠĠĠĠĠĠĠĠĠĠĠĠĠĠ ĠĠĠĠĠĠĠĠĠĠĠĠĠĠĠ
o me
oo gle
w idth
Ġa b
******************************** ********************************
Ġp art
P ointer
ust om
b rief
Ġreg ister
EN ABLE
Ġ 32
V ersion
Ġe lement
Ġm ore
W rite
Len gth
ript or
Res ource
Ġext ern
ĠT r
F UN
To ken
t l
s l
In it
Ġwh ile
Ġw rit
b r
Ġs k
I B
S ub
U D
if ndef
g o
Ġlen gth
ME M
FLA G
8 3
G R
C B
IL ITY
Ġn et
sy nc
M anager
Ġs p
un k
4 5
EN SE
BA SE
Form at
Ġr ight
ĠT H
ĉĉ ĉ
f l
) ),
Ġme ssage
sy s
are d
t ag
Ġl ine
4 2
ial ize
re d
Ġwith out
Qu ery
O verride
Ġr ange
h andle
ĠD e
4 6
ER T
v iew
B lock
\ "
O FF
Ġt able
ith er
M U
p o
te cted
c r
M T
Ġpack age
se s
o ptions
ig h
8 1
Ġw rite
w e
c ache
FA ULT
Ġp ub
S D
2 00
iv ed
En d
re n
s m
l an
ry pt
ĠĠĠĠĠĠĠĠĠĠĠĠĠĠĠĠ ĠĠĠĠĠĠĠĠĠ
o x
g h
AT ION
P RE
[ "
Ġf ollow
S ource
ww w
p arent
} }
ĠW ITH
P AR
L o
U ser
ĠE rr
t mp
u i
Ġen um
ut ton
Ġg ener
pl ace
h as
L L
Ġt arget
s d
Ġm m
def ined
Ġa ct
Ġp ort
D IT
Ġc al
Ġne ed
)) )
Ġin stance
orm al
8 2
Ġs upport
ĠM A
SI ON
f r
olic y
l p
L ine
In stance
++ ;
op en
Ġc reate
/ **
Ġp oint
Met hod
l ast
w ait
Ġa p
act ory
bo x
I LE
AN D
ens ion
st ore
tro ll
St art
c ap
KE Y
IC ENSE
Ġde tail
LIN E
w ay
O C
M em
R T
up date
Ġa g
D IS
A SS
p a
b ool
ĠR es
Ġ Z
p ush
me ssage
Ġreturn s
Reg ister
12 8
by tes
pert ies
f low
A pp
Ġw ork
lo t
Ġf ree
ĠReg ister
pr ivate
at rix
Ġ= ==
f ter
Ġn ext
x D
U RE
H andler
ĠY ou
E V
h s
reg ister
y nc
m odel
CM D
C A
, "
P oint
ad ata
t arget
ĠT est
Ġs w
ON E
lic ation
ref ix
l is
iv en
out put
p m
R D
U SE
x A
O per
Ġt er
) ->
W indow
ĠI D
sk b
Ġa c
ĠC h
i ct
Ġadd ress
c d
U til
Ġl ast
tr ue
S W
Ġs rc
Ġ ~
Ġm odule
de bug
Ġb oolean
S ystem
co py
Ġt ext
Ġval id
O F
Ġinter face
CT L
E E
OR D
Ġ ;
_ ,
Ġw as
ate g
Ġa uto
Ġre ce
or age
s pec
ang u
7 9
ĠN one
Ġm in
he ma
v ector
le m
P T
A ction
C reate
d a
( __
7 5
e lement
DE BUG
< <
iz ed
Col or
ĠĠĠĠĠĠĠĠĠĠĠĠĠĠĠĠĠĠĠĠĠĠĠĠĠĠĠĠĠĠĠĠ ĠĠĠĠĠĠĠĠĠĠĠĠĠĠĠĠĠĠĠĠĠĠĠĠĠĠĠĠĠĠĠĠ
6 3
Out put
troll er
Ġle t
s b
Ġ" ""
app end
ct rl
it le
arsh al
Ġby te
Ġfor mat
IN FO
Ġtr y
d m
ex pected
Ġby tes
ĠL ist
f n
tin ue
AB ILITY
n own
CON FIG
m od
m odule
g l
SE L
par se
-------------------------------- --------------------------------
Ġm ake
CH E
TI ME
6 8
{ "
Ġ+ +
end er
ĠĠĠĠĠĠĠĠĠĠĠĠĠĠĠĠĠĠĠĠĠĠĠĠ ĠĠ
F unction
Def ault
co der
press ion
O K
V I
B O
Ġ2 00
Ġimp lement
0000 0
== =
IN D
loc ation
S L
ch annel
7 0
mb ol
Ġpro vide
2 56
te mp
end s
Ġh andle
Ġt mp
an c
T ag
le g
ct l
//////////////////////////////// ////////////////////////////////
r ate
N umber
sw itch
G PIO
re move
an k
rap h
S p
2 01
ĠF OR
Ġa v
Ġbu f
Ġe ither
mut ex
MA P
Bu ilder
a uth
u id
> >
Ġm atch
up er
V M
P er
9 0
Ā Ā
Ġin clude
ch ild
Ġpro gram
u res
Ġre f
At tribute
STAT E
Ġcon tain
m atch
ific ation
6 1
angu age
il ity
v is
C D
A ccess
T e
7 8
ĠTH IS
O ffset
L EN
Ġcl ient
R ange
I mage
Ġfollow ing
4 1
ock et
FF FF
Ġ{ @
7 2
d uct
M sk
Ġre ser
Ġin fo
ss ert
Ġin formation
M M
ann ot
ch ip
"; })
(), (
T he
9 5
Ġh i
b its
c re
";}) (),(
rit er
m ac
h ash
ail able
Ġo ptions
ĠE n
F E
Ġ_ ,
f ilter
ment s
ĠA ll
Ġrequire d
end ing
H andle
r ib
Ġi o
C heck
m ark
he ader
tr a
M AT
R o
un lock
C P
Ġr un
mse mse
v ider
M D
F R
TH ER
Ġint o
en u
N ull
ing le
Ġo ption
F ilter
E d
Ġg iven
F rame
ph y
M ax
ĠWITH OUT
ĠĠĠĠ Ċ
b t
"+ "
RE Q
ĠH AL
h dr
5 3
Ġresp onse
Ġo p
#### ####
Ġpr int
cf g
a de
Ġdo es
{ }
ap ache
a z
Ġ{ }
he s
Ch ar
ĠA dd
le vel
st ant
5 2
9 6
b us
N o
T P
// /
Add ress
o ff
ss ion
ec ut
f irst
p resent
O S
un it
TE ST
ĠD MA
ens or
7 6
le ss
Ġres ource
l ong
N ULL
Ġg roup
], [
de st
A s
w o
Ġ ent
Ġn on
Ġ item
S ON
S pec
in ary
r q
row s
": "
Ġp ointer
reg s
co pe
p io
ĠT O
Con tent
Ġreser ved
ĠL L
t en
Ġp age
lic e
8 00
N um
A ct
a int
Ġm sg
at ing
" `
sp in
C S
He ader
F P
an y
f alse
ĠC omp
Ġs ign
ound ation
Ġcon d
ad apter
Ġspec ific
li ed
ument s
80 2
en able
CO MP
se e
Ġex pected
Ġl imit
Ġsy scall
s a
p k
B E
CF G
Ġ1 2
c ard
nt ity
ern el
ult ip
if f
5 8
1 000
00 01
con trol
Ġo b
Up date
E P
f ul
Ġc ommand
Ġ ],
ĠF or
ĠD O
Ġf ail
9 4
D ate
M ENT
SI G
ĠF ree
.. /
ix el
Ġe v
B L
Ġimp lied
N d
V ector
s ource
e qual
CO DE
Ġ --
} },
t ypename
Ġc re
ĠO bject
P D
W N
En try
t op
A nd
NE L
Ġ entry
ud io
Ġ( )
= '
ix ed
A CT
AT TR
O p
tribut es
TR Y
Ġmem ory
TI ES
re en
L ay
ĠF oundation
Ġl ib
d st
f ind
Ġ RE
me thod
t d
p th
x y
Ġf rame
c al
7 3
ic ro
IG HT
Ġg l
!! !!
tern al
dr iver
l abel
5 1
LO G
res h
ol ume
Ġspec ified
" ))
Ġarg s
do uble
Ġit s
r un
at tern
ĠIn t
ro und
xff ffff
ĠG PIO
Ġb ack
Ġpro cess
o in
Le vel
Comp onent
Ġth en
our ces
F B
int ernal
qu ence
A g
I dent
De vice
Ġ ::
comm on
d oc
Ġm ask
ĠP RO
Nd Ex
LO W
ex pr
ĠA PI
" ]
lic ense
ĠReturn s
ĠWARRAN TIES
b a
res ource
Ġpro tected
le cted
Inter face
D A
MA C
Ġl icense
Ġst ream
ĠC l
Ġ' \
ro ot
w ard
( !
tr act
6 2
Ġex p
A ll
ĠT IM
ang ed
ĠS h
b i
to ken
r ary
ĠS e
Ġch annel
01234567890123456789 01234567890123456789
__ __
C ommand
ĠA l
d own
de n
lect or
P ack
Val id
Ġper miss
ĠA T
read y
irect ory
Ġf ound
Ġp h
Ġb its
ol l
id get
f uck
tot ype
struct ion
g n
Ġt ag
( {
col or
9 8
Ġa fter
g oogle
9 1
m y
INT ER
O D
LO C
ĠS O
ma in
ig ger
Equal s
S y
DEV ICE
op er
P re
Ġg r
Ġ local
N OT
p dev
. ,
le ft
Ġc ur
L icense
DU LE
PH Y
v o
im age
ĠD ef
ex p
f mt
Ġf mt
ĠB Y
9 3
g ener
EN ER
n umber
9 2
ĠW e
aa aa
co ding
port s
_ (
im um
Config uration
St yle
f p
EN O
in es
F actory
m ote
MS G
T arget
B Y
con tent
and om
ĠP ar
f in
ĠU SB
Ġthrow s
b ar
7 1
Ġo pt
Ġc or
Ġ 64
be gin
Ġ/** <
Ġit er
Ġ ar
I X
m i
P UT
R ow
us b
c v
Ex t
in ition
K ER
se c
Ġint ernal
H el
PE CT
F N
ap t
i mp
Ġ1 5
A GE
t ypes
s oft
F L
W idth
ĠAN D
ĠF ILE
**************************************************************** ********
Ser ver
res ponse
E C
Ġo ver
CO UN
w r
Ġint errupt
r ing
Ġpar ameter
s end
g ine
ar ning
ser ver
Ġo verride
Ġth ere
ĠS H
d ic
Ġh ere
TI ON
] =
th read
` `
E Q
Ġal low
p ost
f b
ro ll
u mp
Ġbe fore
add ress
b oost
in ce
E M
S ER
c a
Ġter ms
ch an
re ct
Ġd ocument
Ġup date
"," "+"
s n
or ity
FI LE
te ger
om ic
ĠV ersion
C ache
r on
ĠA p
ĠC heck
Ġhe ader
Ġv irtual
P M
U B
AT ED
I ter
Ġ2 0
re set
lay er
Ġĉ Ġ
pc i
M IN
Ġal loc
* )
VAL UE
ON G
stat s
Ġ ...
OFF SET
c nt
Tr ue
Col umn
Call back
g en
Ġor der
IN IT
he ight
Ġin st
Ġs nd
st yle
IR Q
Ġright s
At A
Par ams
e mpty
Ġs ame
.. ..
T ask
ĠA n
se q
In valid
pro cess
an sp
t ree
LIN K
) ]
Ġsh ift
Ġp arent
ref er
R C
s r
en v
ro p
Ġĉĉ ĠĠĠ
Ġ" %
ph p
r ange
Loc ation
Ġ( $
Par ameter
ith ub
O ption
IN E
stat ic
ul ar
Ġ ed
" ));
Ġprovide d
d f
Ġa ccess
L abel
Ġe ach
il ename
ol der
Ġc tx
Ġmod ify
s or
as ic
B ox
le x
M in
WA RE
Ġcall back
res p
ĠT ype
T ypes
Ġc ache
g ress
app ing
io us
WR ITE
EN TRY
MA ND
Ġex cept
c ent
F lags
_ .
b s
Con trol
o ption
Ch ild
DE FAULT
c lear
Ġcal led
CO L
ff ect
d s
Ġf ailed
ĠIn c
iz ation
Ġc o
in stance
RA Y
Ġc pu
Ġex pect
DE F
o ther
LI ST
S ign
Ġpack et
D M
S u
ult i
F C
Ġto ken
P age
act ive
N C
ĠD ata
Ġso me
C ase
Ġ1 1
t ask
al ar
c lose
Ġext ends
pro totype
= {
Ġth an
i ed
ph a
E INVAL
Ġf ilter
Ġ( "
w ith
A G
Col lection
w ise
ĠC HE
Ġc atch
N T
MP L
use d
Ġle vel
SU PP
' ),
C o
O B
NE SS
Ġad dr
. </
ot al
By tes
ĠĠ Ċ
_ ;
i pe
e v
ĠCHE CK
at ab
B it
g t
ig inal
ition al
ri es
P art
H AL
Th is
iter ator
yn am
s u
En um
N et
j s
struct or
t ach
Ġo bj
UL AR
Ġr c
de l
IM IT
ST ART
ma il
ht ml
ac es
PL L
on ly
ind ing
a ir
F D
ĠE V
ist s
~ ~
ĠCON FIG
R ule
Par am
I VE
ro id
ĠĠĠĠĠĠĠĠĠĠĠĠĠĠĠĠĠĠĠĠĠĠĠĠĠĠĠĠ ĠĊ
B utton
Ġre d
er ge
pe ed
c le
PO SE
cp y
ĠL I
Ġf n
t ed
T EXT
Ġm odel
Ad dr
> ,
st amp
" ).
in ode
R un
ĠI t
Ġcon tent
ĠF ile
ĠP CI
ro y
c mp
ĠB y
E ntity
ĠF IT
Ġi mage
par t
Ġb o
b ody
ĠP ART
ĠĠĠĠĠĠĠĠĠĠĠĠĠĠĠĠĠĠĠĠĠĠĠĠ ĠĠĠĠĠ
ĠF T
ĠM ER
lat form
ĠC reate
C AP
? :
TR OL
en um
L ICENSE
Ġoper ator
ĠR CC
ĠM C
AD D
h andler
UR POSE
Ġ ]
oc i
A c
Ġob tain
me di
CHAN T
g ithub
US B
Ġse e
ĠC OM
NU M
x ml
ĠFIT NESS
th ing
c hes
OL D
S ec
ve c
AR D
Ġc lock
B ack
CHANT ABILITY
bo ve
U M
o se
Ġo ld
ĠS er
Ġf lag
L ink
ire ction
Ġo k
Ġ2 4
ĠErr or
Pro cess
802 11
Ġte mp
ĠMER CHANTABILITY
it ies
M odule
ĠA DC
D o
ĠP URPOSE
I V
omm on
act er
comm and
Ġde st
ã ģ
st er
atab ase
us ion
() ->
co mple
g pio
Ġcon trol
at al
Ġe mpty
A F
license s
Ġoper ation
C opy
ĠR ed
Ġy our
ĠPART IC
000 8
H ash
ĠĠĠĠĠĠĠĠĠĠĠĠĠĠĠĠĠĠĠĠĠĠĠĠĠĠĠĠĠĠĠĠ ĠĠĠ
W ORD
s v
ĠPARTIC ULAR
rib e
oun ter
Ġ& =
size of
ĠI O
P S
CN TL
By te
xff ff
Ġdetail s
CHE CK
ip her
bu ild
Ġv ector
Ġw indow
N ext
d c
ĠEX PECT
ä ¸
Ġser ver
w rit
Ġl ink
ang es
G B
A uth
Ch annel
M od
Ġbe en
way s
Ġav ailable
el y
g ment
Ġa bove
reg ion
L AN
EV ENT
Pro vider
t imer
Ġp ass
T ABLE
Pro to
Ġsw itch
Ġ REG
EL D
Ġlo ad
ite ms
N one
Ġ1 4
Ġpub lis
i mple
i que
RO M
================================ ================================
c rypt
il er
Ġp l
AL SE
Ġth read
Ġsh ort
con f
ynam ic
enc y
w s
ĠB lock
Ġen able
ĠB u
G r
ang le
ĠAp ache
Ġd st
E mpty
Desc riptor
Ġst ore
T S
I E
SI S
Ġreturn ed
FT WARE
Ġpro perty
Ġh ash
&& (
ĠT R
ay load
s upport
R CC
D P
Ġw idth
h pp
M atch
sh ape
a uto
and ard
Ġ* ,
(" %
ust er
pro perty
List ener
ĠĠĠĠĠĠĠĠĠĠĠĠĠĠĠĠĠĠĠĠĠĠĠĠ ĠĠĠĠĠĠ
ĠO n
Ġ lock
Ġre present
s ert
Ġconfig uration
MA GE
Ġev en
ĠE DIT
st ack
b b
Ġs ystem
d omain
inter face
CON TROL
Ġ{ "
as m
bu ff
t t
ĠV alue
ĠA rray
] ]
Ġs uper
m on
Ġ// !
ateg ory
P ort
Err no
ap h
VER SION
un safe
d p
o v
p ing
Ġc md
Ġsu ccess
p ed
i mpl
Ġt ask
w indow
Ġf e
k nown
Ġapp end
Ġh ost
lo ud
m c
act or
ial og
Ġpar ameters
Ġdr iver
Ġcond itions
Ġf ind
f lag
LA Y
Ġ ),
o ve
ĠSO FTWARE
dr v
ĠM O
P olicy
me t
Ġc opyright
f a
l ang
> <
conn ect
ĠO r
A RE
Pos ition
SC R
v ol
-------- ----
C urrent
e ger
i od
ĠS y
sy stem
ver y
b d
in ation
up le
UR L
n ect
db g
ializ ed
ĠT E
Q L
to re
ĠW M
ac cess
se lect
at tribute
d AtA
c or
Ġ- =
Ġ qu
P TR
r ag
F unc
Str uct
K ind
I ST
Ġstruct ure
Ġrece ived
Ġex port
st op
Ġwh ere
pack et
ĠN ew
ASS ERT
Ġl anguage
Ġcol umn
Ġ row
Ġvar iable
Ġf uck
AR G
ex ception
re l
DE D
4 00
Ġpre v
AD ER
lic it
ret val
ĠD is
Ġl abel
Ġt ypes
Ġro ot
ĠL O
ach ine
U X
UR CE
b p
R IGHT
i ction
ĠI P
Loc al
I mpl
Ġ( _
w n
Ġfunction s
)) );
ch ange
ck et
sh ow
J son
val ues
3 77
Ġ1 00
V is
N S
" .
o ss
U I
Ġch ild
return s
wh ile
an e
Th read
( [
ĠN O
l n
}, {
M sg
Ġerr no
Ġi m
( -
De bug
D S
Ġ el
He ight
Ġwrit ing
n p
s ave
ec ute
Ġg over
F loat
t c
Ġb et
Ġre set
ĠT o
N G
ign ore
Ġ' ,
Ġ INT
comp onent
Con tainer
he ther
) }
c an
Ġser vice
e ad
= %
. *
D et
dis able
av er
St ack
R eturn
Ġb oost
p ool
lu gin
L ock
y y
B US
SO URCE
Ġo pen
Ġa cc
ĠB A
h i
er ved
M ask
W IN
str act
A UT
ĠK IND
MA R
Ġpar se
n r
ex it
__ ,
an el
Ġcol or
Ġre q
Ġ" ,
A V
Ġĉ Ċ
ĠG ENER
Ġnot ice
ab s
FUN C
Set tings
DB G
f w
ast er
Ġa ction
d t
FUN CTION
Ġpos ition
S PE
p atch
ess ion
ĠI s
v ices
l t
Util s
ĠC ol
ac le
i an
F IL
cond s
ĠU SE
Ġi dent
de lete
O pen
rt c
Ġhttp s
RE SET
D ir
CO M
a h
ert ex
ĠĠĠĠĠĠĠĠ Ċ
p d
P AT
Arg s
icro soft
Ġme t
i NdEx
AD C
. /
f g
C ore
pl at
l it
ĠIn it
gr aph
C om
B ody
Con nection
so le
Ġal ready
l imit
c ul
), (
as on
Error f
Ġa uth
Val ues
M atrix
MU X
Ġex press
De lete
n ow
ializ ation
Ident ifier
H W
bo ard
Ġ query
B LOCK
ign ed
t om
DI V
iv ity
ĠCOM MAND
Un it
proto buf
re quire
ĠO P
ĠD A
Re ference
pre v
Ġo ff
Ġ1 3
ĠSt at
N V
UT E
FI ELD
N ONE
tr ace
C ur
Ġĉĉĉĉ ĉĉĉĉ
Ġ[ '
ĠT OP
Ġ ^
Ġapp lic
ser vice
Re cord
Lay out
se ssion
Oper ation
is h
type of
ĠLicense d
Ġm ain
rap per
A r
ĠRe ad
Ġo s
m an
Gener ated
SUPP ORT
S PI
Ġ> ::
Lo ad
ins ert
se arch
p g
ĠWARRAN TY
time out
S N
g lobal
Ġ low
Ġpar ams
we en
RE CT
S M
. $
Pro perties
et ch
str aint
il y
i ag
COUN T
re ed
/ '
Ġj son
SS L
Ex p
R ender
b c
NE T
Ð °
u gh
I mp
Ġ{ {
a i
p x
S G
ĠGENER ATED
U rl
Ġfield s
LO AD
ĠA ssert
col umn
sp i
Hel per
G A
Ġle ft
c ause
con tinue
Ġz ero
Ġpermiss ions
Ġ queue
f inal
de tail
U ID
e ar
H ost
ĠEn able
s ing
s z
at ures
Q ue
ol y
Or der
ad ers
Ġal so
miss ion
CL UD
O bj
ol ve
CLUD ING
Ġd one
Re ader
A p
ĠI R
Ġfor m
Ġd on
D ocument
() :
in st
f ull
W riter
l s
Ġt x
Ġcomp onent
ign ment
ĠN ame
Par ameters
ĠT ime
BU F
ultip le
Ġex ception
T ree
E CT
Ġred istribut
call back
Ġs m
de lay
Ġuse ful
ĠU se
Ġ1 9
ar n
ĠR TC
ĠEx ception
dis play
g round
re lease
p op
Ġw ait
w eb
y cle
ens ions
SY NC
z ero
ic on
BY TE
Ġm at
Ch ange
Ġg o
5 12
or ld
Ġpublis hed
li ance
Ġs end
G raph
Ġ' ',
OR Y
e g
Con stant
C PU
Ġĉĉĉĉĉĉ ĉ
H Y
to ol
IF O
00 1
Field s
l ight
H A
F W
Re ct
Ġĉĉĉ ĠĠĠ
Ġ} )
************************************************************************ ****
Ġi p
Met a
B R
tx t
DIT ION
c lock
ĠB IT
Ġw ant
nc y
iz er
W ork
an ch
L Y
ĠMA X
ĠP y
b ind
et h
g ing
t itle
n ormal
Ġt wo
ĠL ICENSE
R F
Ġa ut
ro ugh
Ġg lobal
ef t
print k
INVAL ID
AA AA
re place
) \
ĠL og
2 000
pos ition
P AD
A sync
pro c
Ġv is
E SS
g or
Ġf ull
TL S
tain s
sh ift
MO D
ou se
Type Def
i ant
S tore
. \
H as
` ,
co un
Ġf l
ansp ort
ial s
r a
F e
Ġredistribut e
__ )
pi pe
Ġhe ight
par ser
C re
i k
Ġcomp liance
ri ority
v b
Ġconst expr
fo o
ĠR T
i as
Ġcon nection
B PF
Ġ1 7
ĠN o
ĠV ector
Ġ! ==
In teger
set up
Ġg oto
s ample
ide o
am l
te mplate
[ :
ĠD o
W eb
Ġde cl
Ġch ange
RE F
e q
as ses
add ing
Ġnull ptr
ĠU p
s ide
d l
util s
Ġde bug
BU FF
Ġcon tinue
> ();
Ġl ay
Iter ator
l x
m ount
Sc hema
at ile
At tr
En abled
m arshal
UN D
P h
-- -
di ct
De cl
sh ut
RO UP
Desc ription
ist ance
Ġfile s
/ >
v c
L ast
Ġst ack
p ower
ĠC O
r untime
J SON
A ssert
Ġin valid
Ġre ference
Ġw hether
Ġh o
ĠC ode
im al
sc ale
r d
tot al
M R
d im
l ate
gor ith
ĠC AN
1 01
r s
ĠB it
W AR
Ġcontain s
ok up
ĠCon fig
j ava
ir on
Ġl ater
Ġp ost
Te mplate
ĠP er
D raw
ĠĠĠĠĠĠĠĠĠĠĠĠĠĠĠĠĠĠĠĠĠĠĠĠĠĠĠĠĠĠĠĠ ĠĠĠĠĠĠĠ
ĠD esc
Ġapplic able
e ach
DE X
ab ility
is ion
arg e
ir m
Ġerror s
PA GE
ch ron
Ġbe cause
Name s
b ers
id s
OP Y
let ed
ĠS Y
Ġn ow
ĠA D
N on
ĠA uth
M enu
Ġj ust
H I
Ġd if
PAR AM
n il
Ex pression
Ġm ac
In ternal
25 5
et a
pro p
Ġsk ip
Ġto p
ig in
ENABLE D
Ġ" "
hed ule
IN LINE
ist ers
r am
Ġid x
DIS ABLE
Ġĉ ĠĠĠĠ
Ġerrno Err
ĠF unction
Ġv iew
Ġde lete
arr ant
o us
STR ING
Ġw ire
S ession
auth or
" \
Ġw arrant
RE T
B B
pa ir
le ep
CH AR
Ġ(( (
Ġsupport ed
Ġb inary
ot tom
Ġlimit ations
ĠW h
ent er
p ass
FOR MAT
Ġgover ning
ĠO ut
Ġh andler
L S
pl us
Ġcon s
W I
Ġt ree
Ġsp ace
n x
ĠC OPY
val u
ĠB ase
RE E
T op
to String
L ong
p b
a ded
D F
j oin
Ġi rq
ma ke
p are
pos it
h al
D IR
vis ion
C ALL
A pi
C UR
plat form
ĠP r
ĠCON DITION
Ġin dic
Ġsy s
ĠDef ault
de c
equal s
re c
P K
s ock
Ġcon vert
ut ion
ĠCON TR
r ic
C AN
p f
key s
Met adata
N AL
Ġv er
ĠTr ans
Ġb l
aw s
Ġwarrant y
sh ort
de cl
ĀĀ ĀĀ
ur ity
L P
t bl
in valid
s oc
Ġat tribute
ĠBA SIS
pre c
4 000
ĠT e
TR AN
Ġre move
ĠCONDITION S
u a
Ġex ist
Mem ory
if o
ĠI MP
CL ASS
Ġarg ument
ar m
t k
f ail
CC ESS
Sc ript
Ġc lear
Ġs ingle
F lag
A I
{ {
r b
Con troller
Ġat tr
G EN
RES ULT
D el
Ġ" ",
O ver
Ð ¾
Ġbu ild
http s
w m
H ttp
Ġm ut
50 9
ĠO THER
D T
po se
BUFF ER
ver se
Ġen v
istr y
b oolean
st ep
W M
i ke
mem ory
PRO C
ĠH andle
: %
ĠI m
Ġv ec
ound s
u c
I f
SU B
Ġun it
P OL
ĠS DL
ee e
se mb
se l
en e
ee ded
ĠTE ST
u ch
O W
P arent
e ff
Ġ2 55
ĠH T
ĠA t
L eft
t act
P ool
F alse
Ġass oci
c n
St orage
ter m
ĠO pen
Pr int
xf e
c el
= (
re qu
00 40
. ",
Ġ# [
ers on
> </
TIM ER
ur face
pr i
c ell
% %
Ġre l
B ACK
T ool
d one
ut ure
ER V
8 000
") ]
R B
V D
AT A
en ces
p id
Ġdis play
S w
ĠA L
Ġ mp
ite mpty
ac ity
ert ific
Ġl aw
Ex pr
Arg ument
Ġre cord
pl u
Ġcon tainer
b utton
' ],
ĠĠĠĠĠĠĠĠĠĠĠĠĠĠĠĠĠĠĠĠĠĠĠĠĠĠĠĠĠĠĠĠ ĠĠĠĠĠĠĠĠĠĠĠ
om itempty
Ġarg uments
leg al
W S
p in
Ro le
k ernel
s ql
Ġb r
con tainer
s ort
//////////////////////////////////////////////////////////////// ////////////////////////////////////////////////////////////////
mo v
Ġus b
Par se
l a
p end
c at
Ġ url
lo y
J ECT
Ġtime out
ip s
Ġal ong
se ction
ĠUn less
sp lit
ib ility
coun ter
> &
Ġd b
field s
Ġag reed
} );
b in
t m
Ġp tr
Ġen abled
ã ĥ
TA G
Ġa wait
f x
C ustom
Con d
ol ver
F ailed
a u
Ġbet ween
P B
Que ue
Ġho pe
f ont
Ġm ark
C md
ag ma
SE Q
!!!! !!
sh ot
Ġs ample
mo ther
Ġ" /
id den
est ed
Ġname s
ĠMO DULE
Ite ms
" ],
Time out
Ġst yle
ight s
fuck ing
mother fucking
######## ########
code c
x is
sc an
pro be
ĠInt errupt
refer ence
gorith m
Ro ot
OR S
at omic
å ı
s ig
am ily
Ġv ol
resh old
ĠV al
CHAN NEL
ĠN ote
t ab
O V
ST AN
ĠD B
PC I
/** /'
00 3
ecut ion
h a
ĠU S
ĠN ot
Ġelement s
Dis play
J ob
C RE
Ġt otal
G ROUP
SR C
Ġex it
Ġc ustom
BIT S
ch o
ĠIn put
in line
ã Ĥ
Ð µ
In st
ĠH W
On ly
ent ic
iter al
SO C
ĠA pp
) },
d at
M on
ĠRed istribut
ĠBy te
test ing
ĠStat us
Ġ( __
Ġ Key
ic ode
c ss
p refix
cl a
W ID
ĠCl ass
pl l
ĠS D
D r
fer ent
oss ible
I Z
bl k
B ar
Ġp latform
pl it
ĠA rg
AC CE
{ },
S end
G P
M ath
S upport
cl ip
WAR N
LI ED
Ġr t
n a
ac y
w ner
w l
R S
r ule
Ġm y
ĠM ap
US ER
R untime
error s
ĠO ption
FFFF FF
ĠDA MAGE
Ġ Ð
pc m
Ġ1 8
he l
MO DULE
ĠA d
W h
el f
) ",
er m
sh ared
ĠIMP LIED
Ġ[ [
ĠN ode
FA IL
app ed
ire d
AR B
iron ment
ializ er
ul ator
code d
ĠS c
Ġ3 0
Ġdr m
f req
ĠO UT
D own
w in
n on
In struction
SU CCESS
sh ould
lic k
Ġor iginal
q p
Ġthe y
IN DEX
desc ription
Ġde l
H ER
Ġlib rary
im ary
TR ACE
ur ing
R TC
av i
ĠS C
r ad
Ġresult s
' \
j ust
as sed
Ġstring s
Ġobject s
P l
33 33
Ġp ci
point s
W idget
ME TH
Ġun defined
Ġlo op
v s
Ac count
Ġcl k
Ġas ync
ĠU INT
R I
en abled
ĠS PI
du ce
posit ory
USE D
A ST
ure d
er ic
P ass
anc el
Act ive
ENO MEM
ct or
ers ist
res sed
G ER
Ġm atrix
ĠL IMIT
s nd
ĠC all
am er
ed ia
V olume
ĠB E
ĠC L
IG N
k ens
du mp
ome try
MP LE
al k
A re
dest roy
R et
KER NEL
Par ser
-> _
set tings
d ocument
En v
ĠE vent
Ġbe ing
sc ript
3 00
Ġgener ated
Ġadd itional
Ġse ssion
me d
Ġassert Equals
he me
F G
B C
RE SS
vo ke
V AR
IN PUT
Ġd irectory
Ġre n
Ġother wise
g s
g pu
b f
)) .
em it
IP V
U ART
Ġex ample
C ap
Ġd irect
{ };
Ġw ord
MB OL
ĠIR Q
IS C
Ġe qual
D AC
Ġd ir
ĠĠĠĠĠĠĠĠĠĠĠĠĠĠĠĠĠĠĠĠĠĠĠĠĠĠĠĠĠĠĠĠ Ġ
FLAG S
C SR
ord in
Ġ ignore
Ġp in
DE SC
ee k
ĠCOPY RIGHT
I m
Ġf in
ĠW rite
in c
ĠB UT
n ote
u ff
i oc
__ _
Ġpar am
t f
__ (
S te
Ġ\ "
Ġw r
p ointer
B M
ĠUp date
und le
G ui
Ġset s
d ated
B its
ap shot
f ill
FI X
0123456789012345678901234567890123456789 0123456789012345678901234567890123456789
! ==
B T
ard ware
C lose
opt s
f ilename
SE D
Sy mbol
ĠC PU
PER F
F ont
Ġse cond
e er
DR V
Ġ location
Ġcre ated
lean up
SS ERT
I A
Ġx ml
ĠF ALSE
C LE
ĠOr acle
000000 01
Ġf d
ertific ate
ff f
AR M
g ed
Ġab out
k free
Ġal ways
sp an
cur ity
Net work
p ending
al low
name s
) *
resp on
B r
con nection
ĠU N
ren der
Ġc ap
Ġ ----------------------------------------------------------------
SY MBOL
ap ply
Ġc annot
Tr ack
Def inition
Ġimplement ation
U INT
U s
a ise
ut f
ch unk
Ġthe se
A ss
rt l
Ġdocument ation
d ay
Ġc op
tr l
EN C
Ġren der
F X
C ell
Sp ace
xffffff ff
Ġĉĉĉ ĠĠ
Ġun safe
n v
Ġref lect
th row
r m
ç ļ
Ġthe m
M arshal
Se arch
Ġd own
TR UE
A b
Ġ' '
p ad
support ed
P y
ĠC H
i er
At tributes
x CC
ĠLIMIT ED
( []
os ition
V ec
ĠM et
Ġm an
Ġint eger
Ġprev ious
Ġn p
ĠAR RAY
çļ Ħ
me ta
Ch anged
m ux
! =
ĠC A
ee p
EN CE
Ġact ual
Ġv m
Ð ¸
C G
se cond
Se lect
Sc alar
U int
AND LE
B OOST
p ng
ke ep
V ertex
Ġpro ject
Ġwrit ten
Ġo cc
Var iable
Ġs ince
C al
) ?
Ġst ep
G e
pr agma
PAT H
COL OR
s lot
Ġassoci ated
S rc
ĠQ u
Ġb ody
ĠS CB
ĠLI ABILITY
c ed
: [
Ġinst ead
G lobal
ĠTr ue
(( (
R el
LE CT
ĠJ SON
w rap
pro ject
Ext ension
- .
Y PE
Ġpoint s
Ġb us
re cord
. __
M ock
s ure
H R
ĠĠĠĠĠĠĠĠĠĠĠĠĠĠĠĠĠĠĠĠĠĠĠĠĠĠĠĠĠĠĠĠ ĠĠ
Ġp refix
E OF
ĠL o
Window s
Ġth rough
h avi
er ived
O ne
L D
E TH
Al loc
Ġ2 5
F irst
R ATE
im ation
imp ort
ad ow
v id
', /**/'
Ġse lect
A PP
S ample
Se lector
S cope
\ ":
T x
[ $
let ion
Ġĉĉ Ġ
L imit
h ci
dr aw
R out
ab c
Ġd iv
map ping
() ));
F ail
Ġpar ser
av ed
Ġse arch
ĠM em
Ġn ormal
MA L
f i
AR Y
ĠU SA
Mem ber
UR N
Un expected
id ge
h igh
ing s
WID TH
Ġact ive
d ig
Ġ Ā
Ġsign al
mo ck
an ces
ma ster
al t
mo ved
O pt
ur i
lo or
ĠTO DO
: {
en ded
v irtual
ic le
g a
sc ription
ID X
al pha
Ġp ut
W ER
Ġs l
Ġpro duct
xb a
Pro ject
M an
ĠT X
] ->
W e
Ġc lose
Ġst op
VE L
ĠUS ART
< ?
Ġimplement s
c hed
AP B
ĠN umber
Ġdif ferent
mit ted
VAL ID
b ed
Ġ// ----------------------------------------------------------------
mem ber
B l
fl ush
Ġdesc ription
pk t
ch ain
N X
P WR
A uto
DE CL
de pth
cre ment
Sec urity
u ally
M ON
t v
Ġinstance of
Ġm ultiple
Text ure
ĠCon trol
Ġt imer
set s
p ages
ĠIn dex
Ġsh ow
IT ER
re al
mem cpy
ĠA C
iction ary
ist ory
Ġb cm
arsh all
Un known
um my
ERR UP
f ix
net work
C U
te ct
i j
R ight
amer a
Ġĉĉ ĠĠ
ur b
ol ution
Ġc ounter
Ġo wn
ĠA V
ĠTR UE
D est
Ġc omm
ent ity
ide nt
Ġchar acter
Ġr ule
E B
Ġs n
Ġap ply
M X
Ġr x
Ġh w
G T
Ġ et
Trans form
â Ķ
ac ing
b h
ĠS PD
ĠSy scall
Ġinclude d
R M
met adata
ĠA SSERT
requ ency
plu gin
Ġĉĉĉ Ġ
Ġcon nect
Ġset tings
ex ist
ĠS ource
Ġ(! (
CO RE
F ree
st a
Ġj av
age ment
Do uble
ro ss
Ġbe gin
S F
re store
SH A
o ot
int errupt
G PL
M ark
iv es
Ġn v
a j
Ġp assed
D oc
Re quire
tr ack
Ġse ction
ĠC or
arg in
../ ../
Ġg en
ER S
RE AM
d w
pen de
Ġsub ject
SE C
U se
. ");
H P
Ġro ut
writ el
Ġdis able
re v
Pack et
ex ports
] +
Ġin ode
ĠM ask
Ġ1 99
s ocket
1 10
z z
Ġs um
F ull
m ath
E Y
Ġin v
th rows
b eta
Ġbo th
bo ot
Ġr aw
re port
sk ip
D ialog
S k
im g
am b
Ġm on
xb f
Ġmethod s
L ib
Q UE
Ġĉĉ Ċ
frame work
P refix
Ġin sert
Len um
En able
Cl uster
H S
event s
"," __
Re port
c ustom
Det ail
PRO TO
Ġĉĉĉĉ ĠĠĠ
Ġ* );
un def
ã Ģ
own er
R ING
~~ ~~
Bu f
c x
Ġse lected
SCR IP
B I
ĠL oc
Ġ2 1
it ive
ĠN E
... )
ser v
proto col
Ġsu ch
Ġm apping
P Y
á ĥ
a e
X ml
Ġsk b
Ġp ng
],[ -
a ut
z on
Sc ale
r v
Ġs ort
Ñ Ĥ
Ġd ma
ĠD IS
n l
comple te
ip h
n b
() ))
C ID
DAT E
AR RAY
file s
ĠĠĠĠĠĠĠĠĠĠĠĠĠĠĠĠĠĠĠĠĠĠĠĠĠĠĠĠĠĠĠĠ ĠĠĠĠ
) /
Ġ/// <
if ies
Ġn eeded
ĠD ate
å Ī
sy m
DO WN
Ġp ower
aaaa aaaa
] ),
Ġĉ ĠĠĠĠĠ
H B
DI RECT
apt ure
() ),
ĠG FP
as ync
ĠS W
P G
Ġd ate
ss ages
g reg
ateg y
Ġbase d
Ġdoes n
Ġk ernel
s lice
s q
Ġl l
i res
i i
Ġ/ >
Ġl p
pro ps
I AL
LE VEL
) [
V OL
Ð ½
Ġevent s
Log ger
! (
en gine
+ "
Ġĉĉĉ ĠĠĠĠĠĠ
X G
pk g
lo op
I con
() ).
ĠST M
ent ries
net dev
Ġd omain
Ġo ur
he ll
w d
ĠEV ENT
i us
Ġ// #
F IFO
N R
medi ate
ator s
A SE
T F
vide o
ĠM ath
Ġ3 1
STAT IC
Proto col
Ġd im
Ġinit ial
R aw
Key s
Ġĉĉĉ ĠĠĠĠ
Ġon ce
D omain
I I
Reg ion
Ġs ure
Ġch unk
Ġ1 28
Ġy y
e lem
st orage
Y P
Ġp ossible
Ġre port
tl s
PO WER
PR I
F MT
ST D
Ġ( '
T ick
V C
Ġs ocket
* (
d up
Pro ps
v a
d k
ĠR X
in ner
S lice
B inding
Ġag ain
PO S
r dev
Ġse quence
nt ax
in itions
NO DE
Ġdistribut ion
ĠU ser
u art
is hed
W D
Ġc ould
Ġopt s
Id x
T ab
Se lection
Ġpro b
ĠOut put
Gener ic
ĠAdd ress
Sh ape
App lication
Ġi NdEx
Ġpermiss ion
Ġent ries
f ailed
ĠC R
Ġconst ant
** /
H ANDLE
ĠS ize
UN K
n ess
} \
ex ec
lan e
rypt o
ST OP
TIME OUT
ĠS ub
H OST
' .
ĠP FN
A v
Ġc ore
UE ST
b ound
channel s
ĠWh en
Ġsc ale
p loy
G TH
al y
6 00
tr igger
19 2
Ġh ow
p an
= [
Ġ2 3
MAR K
US H
p ixel
ex ample
Ġe lem
r f
V er
at io
Ġex pression
comp at
Ġad ded
ĠM essage
____ ____
Ġl ike
Ġĉĉ ĠĠĠĠĠĠ
IG H
ic ally
Ġsy mbol
S Q
g c
Ġkey s
V T
CN T
ern et
ĠIn ter
TI F
Ġs b
ĠEX PORT
Re ce
H z
al le
p ol
Ġp ipe
o le
F ound
leg ate
arg uments
Ġbu ilder
B oolean
Lay er
Ġw ould
se g
Ed itor
Ġreg isters
AR CH
p ret
G O
V O
id d
Ġ1 000
N EXT
EX PORT
C LOCK
Ġjav ax
ĠĠĠĠĠĠĠĠĠĠĠĠĠĠĠĠĠĠĠĠĠĠĠĠĠĠĠĠĠĠĠĠ ĠĠĠĠĠ
0000 01
il tin
Ġ2 8
sc hema
n ost
d iff
An y
Ġĉĉĉĉ Ġ
s peed
l ing
KER N
Ġwith in
Tr ace
w ire
ph ys
or iz
Ad apter
ĠDE F
CT X
Ġh igh
Ġ2 2
Ġf usion
print ln
clu ding
b ook
LI B
] ))
irm ware
sy scall
ĠĠĠĠĠĠĠĠĠĠĠĠĠĠĠĠĠĠĠĠĠĠĠĠĠĠĠĠĠĠĠĠ ĠĠĠĠĠĠĠĠ
es h
ĠSt ate
are a
h d
ĠSPD X
ab ab
def er
ou gh
ĠF ield
r ank
Ġand roid
Ġpro perties
Name space
Gener ator
B ool
Ġs im
lo okup
us pend
Ġm lx
SIG N
EE E
; \
ĠF LA
is c
w arn
mat rix
Ed it
LO AT
Ġdesc riptor
yp h
RE C
ĠE nd
TR I
Ġcor rect
p olicy
ĠS SL
Ñ Ģ
P lugin
cla imer
IC Ag
En gine
N ON
g es
D D
STR U
tr ic
Bu ild
sign al
ĠC al
Ġimp l
ĠO p
Ġĉĉĉĉ ĠĠ
Ġp ixel
Ġde c
ĠM ax
00 2
Ġre al
D uration
Ġcor respon
FIL TER
ĠS tr
he et
AT URE
Ġb ound
Ġs ock
t ml
ache d
a udio
Se quence
t cp
de code
end or
SP ACE
iv ers
SE LECT
z one
C an
FR AME
Ġac comp
M at
Ġr ate
ĠG PL
Ġproto col
- +
it es
-- ;
rom ise
Ġ items
Ġ ON
for ce
Re move
Pro file
ak es
Ġapp lication
ress ion
Ġs ave
sc al
th on
ĠX XX
Ġw x
Ġh old
ĠRe quest
g b
P ost
ser ialize
MB ER
Pack age
rag ment
Ġ2 6
lo sed
Ġtr ack
ĠN V
l m
at t
> ;
Ġdef inition
iss ing
LE D
$ {
ĠS ome
s pr
t ure
ĠC re
act ers
node s
Ġc fg
TC P
EN S
W ait
Ġend point
con tains
Ġmax imum
Ġn s
CON F
P layer
Ġ5 1
Trans action
ĠSt art
te ction
ĠF orm
Ġsc ript
ac c
R ate
MO VE
annot ation
ST REAM
int r
} .
Ġpr iv
fr ag
d irect
MI X
] (
l legal
row ser
x cc
æ ľ
End point
Ġto o
An not
m f
Ġc ref
ĠT ext
LEN GTH
xx x
Ġac count
S um
Ġch ain
Ġ arch
ss l
Ġprint f
Ġun til
ĠIn teger
SC AL
Ġ< ?
ST A
lay out
k t
co very
trans form
CON TEXT
AT CH
e ction
v p
Ġ ..
Ap ply
Ġdis claimer
11 1
P attern
M apping
ver ter
Element s
AR GET
T itle
Ġs ent
Pro xy
ma zon
{ })
5 00
r u
her it
Sh ort
Ġreg ion
PR INT
al f
To String
T M
Ġcon f
lin es
PO INT
HE ADER
ĠP ack
Ġset ting
IS ING
TR A
name space
f aces
xf c
p or
id ate
ĠS pec
ĠRes erved
t im
ĉĉĉĉ ĉ
ĠM ode
CL U
(" \
Ġne g
R ed
Ġ loc
IB UT
ĠS w
IC ES
Ġnet work
M ut
D im
ĠEX TI
Ġc ommon
ST M
DL T
P OST
M UL
WA IT
in ux
arg v
P anel
con v
' ))
h ook
DE C
N FT
g g
Ġnode s
par ameters
k w
v as
Ġset up
Ġoption al
Ġ4 8
s cope
w idget
id i
CON ST
li k
ĠP osition
ĠĠĠĠĠĠĠĠĠĠĠĠĠĠĠĠĠĠĠĠĠĠĠĠĠĠĠĠĠĠĠĠ ĠĠĠĠĠĠ
Ġmac ro
c rtc
Ġd uring
Ġwire Type
Ġre lease
Ġr aise
group s
hed ul
T imer
re p
Ġf ore
m enu
pro m
AT OR
000 2
ĠK EY
De c
QU AL
55 55
S n
p oll
X ML
S ync
S QL
Ġf ont
s uper
BUS Y
un ique
OP T
Ġmet adata
ĠRe set
ff ers
P ower
Ġd ig
f ifo
ĠS N
ACT IVE
) -
H AS
Ġfail ure
Ġrequest s
Ġg ot
m ul
f ixed
cul ate
Ġvol atile
CO MM
W ITH
N A
ä »
cp i
_ ->
¿ ½
( %
cl one
drv data
Ġ5 0
c g
lat ive
E F
OB JECT
Ġdis abled
ro t
M ulti
Ġmem ber
C lick
Ġch anged
AUT H
D irectory
A VE
v cpu
ĠM B
PRE SS
RES ERV
ĠB CM
B D
G IN
en code
Ġiter ator
l ap
ad v
' ).
ĠDAMAGE S
z ure
Pro p
-------------------------------- ----------------
= !
## #
ĠF alse
SPE C
. "
ĠRedistribut ions
const ant
F ACE
it u
.... ....
VER T
a ff
9 15
idd le
ĠCh annel
Imp ort
tr ies
EX IT
A UD
Ste p
Ġp attern
Ġ" -
Ġ{ };
Ġcon troller
get Name
S ocket
havi or
ĠS OC
AC KE
Ġd w
m u
option al
assert Equals
Ġac cept
Ġat tributes
AL IGN
ĠPFN GL
anag ed
Ġen coding
F ALSE
CA CHE
l im
r w
word s
g u
ro ad
ĠU ART
S printf
Re p
Sign al
Cond ition
ter min
ĠRes ult
RESERV ED
Re al
Ġp ool
se ct
head ers
r andom
Ġhe ad
Ġ2 56
C ommon
Ġs up
e ver
ĠIN CLUDING
W ord
sy mbol
Con n
] *
Se ction
del ta
FOR M
Ġ( %
ann er
amb da
P air
Ġtrans fer
Ġĉĉĉ ĠĠĠĠĠ
RET URN
j ob
- \
n chron
if orm
St op
ĠX ML
^ ^
ï ¿½
xFF FFFFFF
REQ UEST
prec ated
C lear
as ure
ĠLO G
Un marshal
Ġf ill
Ġa void
IN CLUDING
Ġs cope
Ġp resent
ĠM icrosoft
k s
SE QU
entic ation
l v
Ġph y
co ver
Ġcomp lete
Constant s
Ġs lot
mem set
en coder
c u
P ACK
il i
d rop
Ġent ity
pro perties
Ġtr igger
ĠA s
Ġw arning
g id
m anager
p attern
12 3
8 0000000
Ġper form
b at
ĠCon text
ref lect
+ =
s ince
ic ient
pl ied
l ation
W rapper
H IGH
t un
pack age
child ren
Ġbe low
+ '
Err Unexpected
ĠP ORT
** *
semb ly
Te mp
CT OR
METH OD
Ġse q
iz es
ff ix
w q
Ġtype of
Ġ EN
reg map
tr ie
Ġ2 7
Ġ' /
Stat s
com ment
b m
ar ation
Ġg raph
O ff
ex port
E ach
s f
e gr
ĠD ATA
ater ial
d om
ĠRes ource
Ġs ql
ErrUnexpected EOF
B N
ĠU RL
Ġc ause
LE FT
ĠPRO VI
IF Y
z ip
P ixel
sc roll
ex pect
LE TE
] ],
OP EN
Ġi eee
11 11
main ing
Ġcall s
F l
Ġw ay
block s
Ġallow ed
Ġch ip
MA N
Gr id
D es
ĠW ith
cur sor
Ġ# #
dr m
hel per
app lication
iag nost
Pro duct
Pr ivate
and s
L ower
Ġm ove
Ġd at
m er
Ġt itle
Ġme ans
Ġd oc
Ġcon tribut
sum er
CF GR
Ġp op
Ġg u
ĠP HY
] :
valid ate
C lock
Ġ4 0
å Ĳ
fe ature
sc reen
ĠS PE
Ġf r
ĠPROVI DED
Ġwh at
R ST
il t
Node s
Ġr andom
fo und
RO TO
Ġp air
ig en
N ormal
con troller
res ources
ipher al
Ġr untime
Ġcon structor
m alloc
NO WN
LO B
10 4
af t
Ġĉĉĉ Ċ
Ġlay er
EN R
lik ely
Ġread only
Ġm ock
bu ilder
pro file
IS R
Ġex tra
n one
Event s
M e
ĠDis able
p ayload
ĠSH ALL
q t
HT TP
Ġed ge
ĠD I
Ġthe ir
WI SE
SI OC
ACCE SS
12 7
g ate
l er
ST ER
Ġex ecut
Ġc s
ĠS U
He aders
ĠW indow
ĠA UT
b g
ĠBu ffer
oper ator
b cm
oriz ont
Ġtrans action
ĠH ash
UL ONG
STAN CE
F atal
pro duct
ĠM T
Ġ keep
Ġi x
ĠW HE
m r
RE D
ON LY
mo use
R AM
al ign
PI PE
Ġre fer
ï¿½ ï¿½
LOC AL
ĠO ffset
v f
Ġse c
ĠM AC
Ġe very
doc s
F IN
c q
z e
not ify
Ġf ilename
Ġcon n
ol ute
con vert
e val
App end
pe g
E LE
Act ivity
Ñ ģ
ĠLI ABLE
ĠP re
AN T
urre ncy
Ġb t
ĠWHE THER
OUT PUT
ĠO per
b ad
N L
A X
al et
Ġuse s
EN A
Ġh ref
US ART
Ġ* (
ifi ers
c y
ore st
` .
C AL
Ġgener ate
ad min
Ġst orage
Ġp ri
ĠAR ISING
ist ics
================================================================ ========
ass ign
M edia
err no
f usion
ĠA F
F LOW
fr ont
assert Equal
xf b
ĠIm Gui
ro ut
d n
v ers
Ġ' %
pe ar
Con straint
c ipher
AN K
_ )
RAN GE
Ġ/ ****************************************************************************
ĠST AT
r ation
S ort
ED TLS
Z ero
0 20
AUT O
INTER NAL
P CM
Ġc ard
Ġ[ "
Ġhe aders
à ¸
sw ap
ĠB O
pe er
Th at
Ġpro p
Ġs ig
tra its
ĠC lear
Ġsc an
om at
Ġcop ies
: !
à ¤
AS M
Ġbut ton
Ġ@ {
ĠPro cess
medi a
TR IG
ĠCONTR ACT
Ġhe lp
Ġneed s
Ġexp licit
I DE
gn ore
desc riptor
ĠH e
Ġc b
low er
clip se
attr s
B S
A E
re cv
' re
v t
Ġcon version
ACKE T
Ġ ERR
se curity
Ġ2 9
Ġoper ations
C omm
è ¯
Lo ader
is on
ĠL ess
File s
ĠS DMA
g gle
ĠEX PRESS
m ult
T ri
oc us
H D
SO CK
CL I
( ?:
c loud
ec ess
Re set
P LAY
orizont al
re ply
_ );
Ġ es
RE NT
Sc roll
F LOAT
F ind
F r
x t
int eger
P END
Ġc ell
p data
on y
Ġj ob
c atch
S ingle
N OR
ex tra
ĠP R
Ġad apter
A fter
k ind
bo se
mp t
Ġext ension
Ġd atabase
P od
Ġb ox
j o
D Y
string s
ĠM X
ed ge
dent ials
ĠP ointer
CON NE
IT S
ĠN et
ĠG o
ĠS ET
ĠDE FAULT
bit map
E THER
Ġ endif
Ġp y
M ove
t age
* ,
A K
d ices
u f
Ġv ia
Ġf s
af ter
ul ate
unk nown
r p
Ġsc hema
R GB
qu ires
p ub
G LE
at tach
} ),
AL LOC
ĠG oogle
F low
PP ROTO
IO C
From String
00000000 00000000
S V
S ING
Ġcol lection
âĶ Ģ
con s
Ġlog ger
Se lected
Ġtr ace
Ġf ix
w p
Ġcontain ing
a mpl
Ġcomp at
= -
Ġp t
ĠDe lete
cl ick
xa a
Ġde n
Ġlo ok
M y
var iable
Ġsh ared
ĠA b
Ġsy nc
Ġdr aw
IST ER
un register
c ategory
cent er
ILE D
he lp
ser ial
L V
S imple
Ġ{ \
ĠS E
T T
Ġ æ
std err
et ime
In to
Ġchar acters
QUE UE
EN TI
N I
str ict
Su ccess
E ffect
ath er
a its
00 4
ĠM SG
HE AD
p ace
D atabase
ĠCL K
for ms
G en
L IMIT
A udio
Re lease
ĠDe vice
Ġfe ature
---- --
IN S
Id s
Ġen code
ac count
Ġvis it
Ġĉ ĠĠĠĠĠĠ
O b
b atch
pre pare
alet te
crypt o
" />
Cur sor
Ġexist ing
C ounter
Ġp erson
am az
ĠMet hod
Ø §
PI X
------------ -
Ġm erge
12 0
ĠIO Exception
COUN TER
Ex port
Ð¾ Ð
E MP
ĠGet s
__ );
Ġh ardware
Ġ å
RO W
ĠOTHER WISE
A W
Ġ er
il ities
por ation
[ (
w atch
ed it
ys is
ul k
h p
res ses
ist ic
comp are
De pth
Ġb ar
amaz on
av ig
ITER ATION
Tag s
ĠT ask
ĠCon vert
andl ers
EX EC
W arning
Be fore
Ġĉ ĠĠ
Ġĉĉĉĉ ĠĠĠĠ
se lected
ĠĠĠĠĠĠĠĠĠĠĠĠĠĠĠĠĠĠĠĠĠĠĠĠĠĠĠĠĠĠĠĠ ĠĠĠĠĠĠĠĠĠĠĠĠ
M ISC
ADD RESS
for ward
inter val
sc si
cur s
ĠI F
IN TR
ac l
ĠAuth ors
B ound
END OR
W OR
C ategory
imit ive
Ġstr ict
Ġex ists
ĠT ORT
ĠI mp
A IL
ac ed
ĠW eb
al ias
Ġde lay
Ġblock s
Ġan other
ĠCor poration
un ion
res er
A Y
> .
Ġa cpi
( :
al ysis
Ġident ifier
Ġlow er
Ġp c
d ynamic
Ġ@ }
we ight
ĠLo ad
log y
G ENER
-+ -+
ub e
gener ic
Ġin cluding
Ġfore ach
} /
ĠD AC
MA IN
Ġp ayload
ĠG TEST
get Value
Ġre moved
ĠC ore
D IG
mb ed
alle l
Ġc p
at tributes
ĠO ther
Ġde pth
su ccess
r pc
Ġ* ****************************************************************************
s up
um b
Ġ6 0
M ouse
HA SH
Ġus age
c pp
Ġst ill
G ame
Ġ" .
Reg istry
ost on
TH READ
i os
re ce
R ad
Ġcorrespon ding
ĠP B
Ġtest s
Ġg e
S l
ãĢ Ĥ
"" "
ĠM ake
Ġrequest ed
ĠI ter
ĠE FI
01 0
ĠCol or
Result s
00 7
e a
P op
Ġr v
D b
Ġĉĉ ĠĠĠĠ
Ġtime s
Ġle ast
Ġm ight
Ġdel ta
ĠO B
w arning
ĠF ROM
2 10
ĠB oston
t le
gn u
Ġr ad
PK T
Ġrepresent ation
ĠĠĠĠĠĠĠĠĠĠĠĠĠĠĠĠĠĠĠĠĠĠĠĠĠĠĠĠĠĠĠĠ ĠĠĠĠĠĠĠĠĠĠ
F ix
cur r
ll vm
ĠHT TP
Require d
Sc reen
FOR CE
99 99
t yp
Ġm ost
ĠP ath
ĠP AGE
m gr
co gn
ag ic
ex ists
Ġm s
W L
Ġab s
Ġstore d
Ġrun ning
Re c
fe atures
ĠA ct
oper ation
s id
V F
CO PY
al th
Con f
Sh ow
Ġ" +
Group s
ĠĠĠĠĠĠĠĠĠĠĠĠĠĠĠĠĠĠĠĠĠĠĠĠĠĠĠĠĠĠĠĠ ĠĠĠĠĠĠĠĠĠ
HT ML
AME TER
h ip
Fail ure
ĠLess er
' ])
Ġap pro
) +
Ġ mpl
Ġpl ace
T otal
t ip
Ġs imple
ĠP oint
ook up
F OLD
Be an
Ġcond ition
Re pository
o res
Fe ature
F IR
j ection
From Range
ĠD et
V ENDOR
pl ane
Met ric
EX P
h c
Ġtrans form
MAT CH
0000000 2
â Ģ
pe at
H igh
Field Location
00 18
L ONG
for med
ag ent
m erge
Ġr hs
Ġcl uster
order ed
NE W
end ar
mask FromRange
h r
Stat ic
Ġa ff
PA SS
clu ster
D V
_ <
ur pose
F ixed
en ch
struct ure
: \
ĠCh ar
Ġr tl
Date Time
0000 1
ax is
p et
Ġ' <
GR P
F in
P ipe
Ġr ing
m g
Sp an
itu de
Ġ' "
ecess ary
AN Y
en coding
ON T
Detail s
æ ķ
Ġa pi
em u
se m
ys ical
cs i
s un
Ġinit ialize
co me
Ġch anges
ĠQ String
ĠB SD
io mem
Ġu i
Ġme ssages
h l
M IC
L C
ĠV ar
000 4
ĀĀĀĀ ĀĀĀĀ
Pro gram
F REE
re ater
model s
Ġalloc ate
ul ation
IBUT ORS
Con vert
bu cket
Ed ge
Ġ" );
ĠSer vice
t b
SC AN
Inter val
S up
n n
SI B
P riority
IN STANCE
str iction
SUPPORT ED
Ġh app
it al
State ment
Ġn r
in v
STRU CT
Ġgr ant
Ġe ffect
Ġ` `
str ide
os ite
V ideo
ep i
//////////////////////////////////////////////////////////////////////////////////////////////////////////////////////////////// ////////////////////////////////////////////////////////////////////////////////////////////////////////////////////////////////
ĠCONTR IBUTORS
> \
ĠOption al
arg ument
S ock
m ulti
io ctl
ĠR un
pro xy
d x
ĠPar se
us ive
U Int
Con nect
g on
ĠĠĠĠĠĠĠĠĠĠĠĠĠĠĠĠĠĠĠĠĠĠĠĠĠĠĠĠĠĠĠĠ ĠĠĠĠĠĠĠĠĠĠĠĠĠĠĠ
ĠI mage
Ġse par
n ic
re mote
f ast
end point
Ġsm all
ue st
1 16
V ICE
Collection s
Ġcall er
Ġ" <
ĠH E
O wner
Ġrece iver
s ingle
ĠI llegal
Ġre ason
" }
pro tected
10 5
ĠS QL
S m
R x
Are a
Sh ader
co ll
UT F
Ġ ul
S ave
ĠGL int
in o
l b
ĠP LL
log ger
OP TION
UR I
Ġf printf
pc ie
Ġcurrent ly
CON T
In v
ĠS k
Group Name
',' \
UNK NOWN
PE G
k it
b asic
H DR
ĠV M
ex ecute
O VER
module s
De coder
RE SOURCE
Ġ10 24
ud it
Ġvariable s
Pro gress
require d
Ġs ide
Ġt ri
ĠB e
J oin
Com ment
Vis ible
U ri
Ġt yp
ĠFLA SH
t ty
CR C
Al low
ARG S
D ay
Ġre ct
ĠG ET
ot a
LA PI
at ter
Ġup dated
å ®
ĠIn valid
Ġe p
Ġrece ive
PR IV
In sert
th en
Ġm any
d ist
F REQ
Dr iver
h id
XX X
ç Ķ
L T
xb b
Ġcall ing
t ion
(" /
per iod
Ġĉĉ ĠĠĠĠĠ
SE G
ĠD WORD
X Y
F M
DE SCRIP
CI AL
Ġun ion
gr p
Ġto ol
ĠW IN
ac cept
tr ics
IG EN
)) ))
ins n
var iant
EX TI
ĠP NG
_ [
B inary
ĠDe bug
se quence
Ġs d
ro ke
h older
Ġp ending
Ġlib c
us age
b io
1 12
ater ials
CL R
pack ed
el if
ri er
andl ing
F ULL
read er
ĠHW IO
C loud
++ ]
ir r
SING LE
lo ts
vm x
ĠE d
Ġĉĉĉĉ ĠĠĠĠĠĠ
o om
C LO
un ch
Ġde code
res olve
P lay
UP DATE
Ġel if
Ġ ];
Us age
Ġdest ination
A IN
riter ia
IP S
G o
Ġse gment
ĠA mazon
arshall er
ry ption
Ġm d
ar p
Ġ0 0
Ġp lugin
Ġspec ial
Ġ( []
M ac
ĠC RC
Oper ator
Be gin
Ġver ify
Ġ{ '
Ġres ources
Ġre place
Bu cket
A rr
b le
Ġre mote
Ġat omic
ST O
t ick
Ġin struction
EN UM
Re place
r ics
10 3
R PC
10 6
M icrosoft
on d
ext ension
Ġun ique
Ġd irection
Rule s
b ottom
Ġmat ches
ĠP ort
gr id
For ms
Ġ* _
co ok
Ident ity
P latform
w ake
t i
G C
str cmp
Ġ( );
x ef
IL D
Argument Exception
im ate
ĠT YPE
ĠG O
Ġf low
a o
ces sed
ro le
Ġl ua
action s
Ġv ideo
Not Null
Ġalloc ated
ĠF ind
Ġc r
X T
Ġp s
Ġwr ong
å ħ
INT ERRUP
u v
k g
int el
LE EP
V irtual
ER O
Ġp riority
par ameter
ING S
IC K
Ġl ines
al g
par a
Ġ' .
p v
) |
ĠR aw
r atch
= \"
I PPROTO
ĠĠĠĠĠĠĠĠĠĠĠĠ Ċ
.* ;
Ġs size
Ġ[ ];
ST S
R G
ĠH OLD
\ ",
ĠCl ient
A li
API ENTRY
G PU
Ġf oo
Ġa xis
Res ources
Ġs z
ĠAl loc
( /
ri end
em on
A cc
ad ing
atal og
d ot
ĠInit ialize
Ġĉĉĉĉ ĠĠĠĠĠ
Ġf ixed
F n
ME SS
t uple
C or
Ġd ist
cap s
At tach
or ies
EX CE
v i
E W
T OP
Ch ain
ext end
Ġv olume
V o
Ġb ad
ade on
FE ATURE
Ġc rypto
inter pret
LO T
m ar
QU I
d ates
ab ilities
Ġext ernal
Ġs peed
i S
@ @
Ġ ERROR
ĠP IN
SA MPLE
ver ify
istr ation
esc ape
Ġcon sole
conn ector
C tx
G U
ĠC ommand
Not Found
Ġcomp ute
v lan
b order
Ġse lection
B atch
Pro c
Ġ 80
ĠL P
Time stamp
1 0000
M achine
Ġst andard
ĠN e
ĠM atrix
r and
Comp are
ĉĉĉĉ ĉĉĉĉ
comp ress
C ard
Ġmod ification
Ġre trie
m ix
Ġp olicy
LOB AL
ST EM
un defined
hedul er
index Of
al igned
ploy ment
irq restore
Ġ! (
ĠH ttp
n ed
/ {
In formation
è ¿
pl an
Ġal pha
ffff ff
STAT S
ä º
PIN CTRL
ne g
'] ['
a dev
be fore
Z one
G S
TE MPL
pende ncy
Ġpri or
Ġfor ce
0000 7
CON N
k m
Ġre ader
ĠC M
az y
x af
Test s
oly gon
ĠG roup
ent s
f h
av ailable
res ume
REG ISTER
Ġc c
br idge
gr a
ĠT ag
ce ed
Row s
comm it
RE SH
Ġcomp iler
D ig
mark s
as c
Ġsy nchron
ĠThe se
11 4
Ġd ict
R U
ĠL e
ve lo
MESS AGE
Ġo map
16 0
ex cept
Ġen sure
B AR
time stamp
re st
c ancel
tag s
ĠD eep
R W
M ess
: `
ATTR IB
Ġcontent s
p ix
Str ategy
result s
ĠF IX
bu iltin
ĠH RESULT
Ġne ver
Sh ared
comp iler
Ġi b
z er
E l
xb d
Enum er
ol ved
B undle
ĠDE BUG
vert ex
ĠF ilter
tin u
X I
Ġ ath
R andom
ĠS V
Ġy et
Ġex tract
Ġare a
R UN
Ġme ta
M esh
MA G
wh ere
ub ernet
ubernet es
Ġcomp ut
Ġk ind
Ġmod ified
vol atile
ĠAR M
Ġ* =
St andard
13 01
B CM
de s
ĠSY S
M ain
se mse
H O
Con st
n f
and roid
ĠAUT H
Ġ~ (
Ġspec ify
Point s
S lot
iv al
P ublic
PRO T
âĶĢ âĶĢ
Desc ribe
Ġint el
e clipse
xf d
Ġ( &
d irection
Ġme di
Ġneg ative
road cast
Ġy aml
Ġs v
Ġcom ment
con struct
M erge
Mod ified
Ġn fs
ar ison
ĠT able
Ġv ert
READ Y
Ġb asic
Ġs plit
ĠM in
ĠAn y
Ġde term
VI DE
FAIL URE
te m
Ġs s
E QUAL
N e
A UX
ĠR untime
ad s
Ġsh ape
se ed
38 4
tool s
f etch
dis k
G ATE
ĠG r
si mple
Ġd iff
DE LAY
is Empty
act ual
Ġd ynamic
Ġen c
PAR AMETER
Co ord
Ġn ative
ss i
10 2
B asic
Ser vices
Ġt ab
-------- --
T ex
V P
ĠP lease
Ġe cho
FA ILED
Ġcomp are
Ġ% [
ĠSt ream
dis abled
W T
Ġp p
un likely
V R
ch anged
ase s
Rout e
s ensor
Ġ rows
Ġvalid ate
Ġ' ./
ĠC S
ch or
ĠTh ere
Ġwrit er
g y
Ġ il
s uspend
Test Case
or ch
Ġass ume
Ġb fin
ĠH AVE
Ġdirect ly
trans fer
Ġ* )(
b lob
> =
up lic
MEM ORY
et s
ĠA ccess
v olume
P ACKET
> )
Ġ ic
00 8
x ac
xFF FF
Y Y
INTER FACE
ad c
En coding
pass word
" ===
D st
s in
V ert
G l
ĠO S
Ġk now
Ġdev ices
m v
iv ely
12 5
Ġro und
TE MP
ENTI AL
Ġj Query
Ġper iod
1 32
pri ority
Ġ" #
k a
Ġm aterials
Ġpost Index
f il
Ġd erived
ook ie
Ġ5 00
ĠRe move
t w
ĠF rank
AT OM
Lo op
Ġp adding
Read Write
ersist ent
Ġhe l
IC AL
IF I
if th
ĠArray List
ĠE IGEN
|| (
ĠOn ly
T ARGET
B F
Ã ©
Ġcur sor
Dis able
H ook
21 10
B AD
ĠS UB
lo ader
Ġt s
ick er
Ġw ere
ĠĠĠĠĠĠĠĠĠĠĠĠĠĠĠĠĠĠĠĠĠĠĠĠĠĠĠĠĠĠĠĠ ĠĠĠĠĠĠĠĠĠĠĠĠĠ
D X
C ertificate
Ex ecution
CLE AR
ENS OR
Ġg pio
Ġc x
Ptr FromString
tr ansport
H Z
W atch
Ġocc ur
M G
12 34
a N
æ ĸ
10 8
C Y
Ġp ages
Ġlo okup
ne ed
ĠS end
Ġd id
St d
I VER
Ġarg v
c ert
pt e
ar ator
da i
Ġ[ ],
Handle TypeDef
kw args
ĠPro ject
ORD ER
h idden
ĠAC PI
CRE ATE
Ġe mit
ĠSH A
Ġab stract
y aml
ic ast
c leanup
ordin ate
res erved
Ð° Ð
ce e
Object s
Ġre tain
C MP
A xis
D irection
ĠMem ory
IC R
ro ute
39 0
Ġĉĉĉĉĉ Ġ
E lem
reser ve
L iteral
L CD
mm c
D SP
Oper and
N ative
W E
W orld
ed itor
ĠD ep
ĠPro to
Re mote
ĠF loor
Ġb atch
pen dent
ĠM od
Over flow
ip v
d uration
Ġp ad
sc hedule
Ġk vm
sh a
Re q
t ile
13 4
ME D
2 24
ĠCO MP
p n
Ġro t
pe ated
ĠDesc ription
spr ing
, &
a ux
text ure
Ġt ake
AUD IO
Ġup per
Ġlay out
ĠC urrent
anc ed
Ġcon tact
M SK
Ġd m
Ġstr len
UN USED
MUL TI
A HB
I gnore
En code
ly ing
val s
lock ed
cl usive
ĠM L
Var int
Se cond
or iginal
v en
se ss
j unit
ME DI
TEMPL ATE
tr fs
( ()
R ot
IL L
comp ute
xb e
ac pi
O wn
con sole
. (
PP C
Back ground
ĠL ine
e lo
ĠDeep Copy
Ġn ecessary
ĠSet s
SY N
full y
ĠFrank lin
S Z
SE S
Ex pected
ĠMB EDTLS
ä ½
ĉ Ċ
ĠD r
p adding
b and
di ag
ĠByte PtrFromString
Ġle ss
xb c
å ¤
ID LE
DE P
v d
H PP
COM MAND
dm i
A CTION
TI OC
op code
w c
BL K
ĠC o
A ES
Ġ0 2110
me sh
ĠF ifth
p wr
ĠConfig uration
OT G
play er
ĠLoc al
Ġa mount
Ġn g
RE SP
un used
Ġo wner
Ġat t
Ġser ial
INTERRUP T
c rc
ETHER TYPE
ation Token
Ġ$ {
PC IE
ĠS ec
E A
Ġper mitted
Valid ation
PRO M
r sp
aj or
sc hed
WIN DO
? (
Ġ3 6
ĠP art
TA IL
Ġar m
lis h
ĠB US
Ġ( -
f amily
ate way
Ġal ign
l c
reg ex
EX PR
%% %%
cond ition
let on
ĠC an
l g
m k
Ġn a
Ġcon struct
Se gment
T ensor
} ",
Ag ent
x ab
n i
U V
Ab stract
s im
ĠG Lenum
Pass word
H C
tr ain
Ġa md
Ġsc al
c ar
se gment
g p
Ġe valu
CLI ENT
om ap
li ct
P ID
J S
Ġdesc ribe
pro t
Ġfl ush
Ġex ecute
Ġbu ffers
ĠF rame
, %
I t
c plus
ur al
ĠB oolean
YP TO
Met rics
z alloc
ĠC opy
lo aded
ĠP TR
D N
Ġaff ili
Support ed
ĠJ son
OR M
WOR K
Ġpart ial
oc ation
xF C
' ];
Input Stream
OT E
SI O
S plit
l anguage
File Name
T erm
Ġ 99
ĠDIS CL
V B
Ġk Instruction
S elf
RO P
w riter
! \
gener ated
S DMA
ĠĠĠ Ċ
00 80
MT K
ĠPro perty
Ġ& (
P ut
res ize
ENO DEV
z M
or ig
B ounds
ĠĠĠĠĠĠĠĠĠĠĠĠĠĠĠĠĠĠĠĠĠĠĠĠĠĠĠĠĠĠĠĠ ĠĠĠĠĠĠĠĠĠĠĠĠĠĠ
Ġse lector
iff ies
CC R
NU MBER
Ġun known
ĠPr int
D ONE
CA ST
Ex ternal
Ġp eer
D AP
def group
Ġex ports
Ġt ick
Ġen gine
] \
Ġaut omat
Ġ// ////////////////////////////////////////////////////////////////
IS O
Ġt t
D irect
11 5
ĠSe lect
h ide
irq save
Ġ, '
e mail
n el
Process or
â ĸ
t ensor
ind ices
[ ],
Not ification
L anguage
Ġp m
1 80
( `
] ));
xf a
Graph ics
Ġallow s
Ġ* */
ICAg ICAg
v es
cplus plus
Ġf all
if s
SPE ED
ĠĠĠĠĠĠĠĠĠĠĠĠĠĠĠĠĠĠĠĠĠĠĠĠĠĠĠĠĠĠĠĠ ĠĠĠĠĠĠĠĠĠĠĠĠĠĠĠĠ
ĠTh read
Del ay
de p
Ġre quires
** */
ordin ates
Tr igger
Ġ" [
r st
ĠTo ken
66 66
Error s
En coder
du c
Ġc rate
Ġen ough
Ġopt im
" ==
pan ic
Ġ4 5
Ġ201 6
L AB
Ġ4 2
ĠDE CL
Ġ util
Ġno thing
M V
Render er
S urface
Ġin ner
ot ion
pro vider
urn al
CHAN GE
size i
ĠSt andard
g ame
Annot ation
NFT A
L ookup
Ar ch
Ġĉĉĉĉĉ ĠĠ
Ġaffili ates
pro gram
u uid
I MAGE
Ġtime stamp
detail s
Ex ists
S LEEP
Ġt f
Status Code
F older
ĠM y
D iv
Apply Configuration
Ġmatch ing
xF E
æķ °
uint ptr
å Ĭ
10 9
Ch unk
Ġcase s
RL C
25 0
De code
AAAA AAAA
he x
Un m
2 64
Ġter m
O ID
AS N
Th row
L B
k er
is p
Ġrepresent s
se lector
ĠA ss
OP ER
Q ual
V tbl
ĠE TH
up per
c red
8 01
G RA
frame s
J ava
ĠErr Invalid
ĠF IFO
Ġ" _
on s
000000 7
Ġpart ic
ĠL ong
10 7
VIDE O
U ST
cook ie
Ġat temp
Sc an
00 6
Ġus ers
De ep
ĠA ction
ĠM odel
Ġtag s
b ank
Ġf p
Ġfor ms
ĠS o
d og
UP LE
F ill
b w
Child ren
Ġth ose
Ġprovide s
S ql
Ġprocess ing
u ed
compat ible
G u
Ġp id
DO M
re es
ĠQu ery
cl s
Sy scall
ĠL ink
Ġimplement ed
Ġde s
c ut
init ial
Ex it
Ġ3 4
col lection
ĠE lement
am ma
rc u
Ġ" ";
PIN MUX
ap s
B ig
F ace
Ġ3 3
CONNE CT
element s
gr ade
Ġs afe
ecut or
WARN ING
B us
Ġbu cket
Mess ages
Ġm bed
ut able
Sign ature
x ad
Env ironment
V LINK
S MP
SEQU ENTIAL
ĠA S
F ROM
Char acter
A bs
è ®
Ġ arr
f actory
R V
msemse Q
in et
Set up
b inary
T D
Ġbe st
oo g
p adapter
REG ION
Ġf actory
u E
Ġal gorithm
Con verter
m x
Ġgener ic
Ġab ort
emit ter
ĠC LA
p anel
gener ate
Ġet c
Ġap pear
Ġs lice
ĠDI RECT
A IF
object s
Ġ 56
ĠA nd
TEXT URE
ser vices
t id
ers hip
Ġp ush
I FF
A zure
im s
wh ich
I o
ĠG raph
O DE
IS H
Ġ$ _
ĠR et
Ġm ov
var s
) &
ĠI tem
Ġcl s
test s
15 0
Ġchannel s
Ġor igin
ĠG LAPI
E VER
fo c
æ Ĺ
i um
Ġstat s
< >
IT ION
ch art
T ry
Ġindic ates
G LOBAL
Sn apshot
if ace
CH ED
TI O
ĠS cal
Ġĉĉĉĉĉ ĠĠĠ
or ary
Ġdistribut e
K EN
irr or
Ġa udio
Un lock
ĠS ign
Ġ*) &
ul ated
Ġm achine
ĠP WR
l if
å Ń
ĠR ights
V ID
cee ded
P WM
Se conds
u g
T uple
Ġ', '
FLA SH
Ġc n
Ġchild ren
ex pression
ĠV iew
Ġp oll
igh b
ĠST D
Ġre try
f lat
Ġr b
id le
Ġbo ot
ĠM arshal
T UN
ĠC C
Ġinterrupt s
S DL
ĠW ait
abc def
co ut
Ġc ert
Ġd ump
Ġ>> >
Ġ' #
Ġ< -
ĠN RF
ĠSPE CIAL
ation al
message Info
SH ORT
Ġter min
10 24
SY STEM
v irt
IT CH
CO D
ITE M
St ub
sub sc
Ge ometry
Ġacc ord
FF F
BO OL
* >(
al anc
Error Code
)) {
ĠM PU
ĠĠĠĠĠĠ Ċ
buff ers
H CI
SU M
Ġauth or
CT R
ĠO MAP
L AT
process or
Ġm enu
Ġse g
label s
Auth or
ĠA CTION
ĠErrInvalid Length
back ground
sub dev
Ġm ade
Ġ ------------------------------------------------
13 9
Ġs oc
sl ave
INT E
DR M
cc cc
2 40
ĠBu ild
( \
ag ing
( @
Ġch an
struct ions
Ġf w
B IG
) &&
Ġd ay
f actor
xa mple
v if
LO OP
of s
B ANK
Con tains
Ġm ultip
Ġre st
ĠP romise
ĠS upport
un ic
ĠL ib
Ġf uture
ĠP OS
on ce
I ME
gr pc
Ġdesc rib
Ġis s
Ġmbed tls
stant i
ol ar
Ġ201 7
see k
B t
Ġ' -
ad ient
ĠF loat
APIENTRY P
00 5
C trl
TA SK
EMP TY
L ight
IO S
ĠS imple
Ġim g
ĠAuth or
ĠE xample
RE LE
ĠT x
M aterial
Ġre lative
DE S
id ual
gh z
ĠDB G
ĠS ERV
Re st
Ġc m
Function s
n ative
av ing
REG S
ĠU TF
ĠB T
AC PI
code s
ĠSN DRV
ist o
xc f
ĠM IT
Ġgrant ed
Ġinit ialized
En c
ĠLL VM
ĠN S
Ġdef ines
me tric
D ict
ĠJ ava
ĠHOLD ERS
14 4
s ame
Ġsc reen
P RES
P lan
Ġt uple
ĠV k
Set ting
ĠSer ver
h z
Ġf ace
Ġd istance
Hel p
v ma
ĠV ec
in herit
s leep
12 4
ĠĉĠĠĠĠ ĉ
05 8
fl ash
13 0
ĠM D
yn chron
Ġi ms
Ġ/ ************************************************************************
lu a
Ġm aster
Ġx fs
Tr ansport
Ġro le
mat ches
) "
Ġclass Name
Ġpre c
S END
d y
Ġf c
Q M
ĠIN DIRECT
99 9
Ġ' @
ĠV er
' ));
Ġe qu
ĠĠĠĠĠĠĠĠĠĠĠĠĠĠĠĠĠĠĠĠĠĠĠĠĠĠĠĠĠĠĠĠĠĠĠĠĠĠĠĠĠĠĠĠĠĠĠĠĠĠĠĠĠĠĠĠĠĠĠĠĠĠĠĠ ĠĠĠĠĠĠ
ĠH ow
Ġnet dev
Ġa ws
ĠW ork
Ġ READ
Ġfor ward
qu ent
Ġfe atures
DR AM
Match er
Ġ/ ****************
ĠC G
Or igin
SER VER
Sec ret
Ġt c
x dd
sub stream
M K
M ill
B IND
Ġ[] *
Ġ ULONG
ific ations
Z ERO
ReadWrite Access
Loc ale
ĠCON SEQUENTIAL
pro gress
Res olver
Ġ201 8
L IT
cl asses
Ġw atch
Ġf b
tr im
qu ot
inst all
ĠĠĠĠĠĠĠĠĠĠĠĠĠĠĠĠĠĠĠĠĠĠĠĠĠĠĠĠĠĠĠĠ ĠĠĠĠĠĠĠĠĠĠĠĠĠĠĠĠĠĠĠ
An im
ĠWindow s
He ad
16 8
dir ty
Ġd rop
RA W
V S
Ġass ign
ĠEx t
Se q
Ġ? >
ĠE num
FL USH
Ġre c
ĠPRO F
An gle
ten ded
SIB ILITY
n op
Ġc ome
b ig
59 0
Ġ3 5
Ġstr ide
cor rect
Sum mary
ĠM PI
S hell
T y
er min
sd k
Ġd AtA
al ways
Ad min
un map
ys ql
======================================================================== ====
CE SS
* -
Ġde al
ĠDEF INE
ER Y
ĠIn ternal
G V
i w
N ow
Ġread y
Ġu v
N B
Ġm t
to kens
end l
aaaaaaaa aaaaaaaa
p wm
ĠP h
æ Ī
int f
Ġ4 4
lo ur
Ġw ell
ĠA SN
IN V
g ol
av ail
H int
Ġcolumn s
E IO
g be
ĠS I
D ynamic
S MC
spec ific
B ind
component s
Ġin side
Ġ' ;
ir d
Ġ) .
Ġlist ener
Ġreg ard
Ġf actor
Ġpro c
G Lenum
N F
Ġb ind
ar ies
i ally
N il
com ing
ĠAb stract
ab ort
Per iod
è ¡
DI AN
ĠL en
ma j
Pre v
ĠC lock
Ġm issing
i eee
Ġex pr
s ent
P ub
dis patch
Ġvalid ation
C ast
S ame
Ser ialization
mpl ates
TH RESH
ch r
Ġl arge
am d
Ġret val
v endor
Ġover flow
Ġframe s
ĠM odule
Ġstart ing
Option al
pro duce
en ers
i op
Ġact ually
Ġpass word
ĠPROF ITS
trans action
to Be
he ap
TRAN S
nc ies
11 7
T ON
Ġ5 9
33 08
spring framework
ĠForm at
Ġtext ure
---- -
C ancel
ĠLO SS
Ġ[ -
Ġd t
. )
2 20
ev t
co ord
~~~~ ~~~~
se lection
al ance
Ġpar sed
) ((
and idate
er ation
Ġd er
E FF
yp er
rule s
SCAL E
ĠG e
par ator
urre d
Ġsign ature
W H
M ULT
Ġ icon
ĠV AL
Lib rary
[ ];
eff icient
Ġe q
num eric
ak er
ĠCre ates
DE L
ç »
Ġto kens
omm u
ENT AL
Ġproto buf
P in
Ġsupport s
ĠS IG
ter s
Ġb in
GL uint
MAG IC
"> </
ac on
x ec
ĠN um
F ocus
Ġ3 9
ĠBy tes
## _
Comp lete
to k
ĠT arget
IN ED
ĠCol lection
m argin
Ġpre vent
for Each
IN CLU
u k
F uture
ĠRes ponse
Ġt p
L ER
d if
I ER
as y
P ush
Ġs printf
Ġcheck s
ct p
â ķ
02 00
FIR ST
Ġpro ps
OB J
Ġarg c
xd f
BYTE S
an te
ĠI EEE
Ġinter val
Ġ201 5
Ð »
Ġse conds
IG ENCE
miss ions
av link
Sh ould
I p
ĠV K
GL IGENCE
Ġignore d
x ce
Ġ3 7
Field Value
ĠNE GLIGENCE
xa e
Ġwe b
Ġb ig
al og
comple x
pr imary
Ġaccomp any
config uration
F actor
000 3
ST ACK
Sw itch
loc ity
Ġbe havior
d istance
or th
RE V
Ġal location
In ner
ĠSh ift
ĠC ount
An imation
ens itive
; }
rad io
H s
W in
R SA
anc ell
B order
Ġpro gress
20 20
ĠPRO C
Ġr s
D iff
ST IT
Fatal f
' +'
PE D
ĠPer mission
Ġcre ating
STO RE
Ġc ast
m achine
s ite
K P
Ġpro xy
bl ank
A ut
P eer
Ġcal cul
Ġis n
ĠA RE
PH A
1 64
w orld
gh ij
BO X
Con structor
Ġaccompany ing
Ġ END
Ġp od
ro s
Ġme an
ĠPack et
Ġmem cpy
D ictionary
Ñ ĥ
lib c
b ss
S ys
Ġse ed
ĠNOT E
ĉĉĉĉ ĉĉ
ĠA c
Ġpro file
L ow
Ġper f
ĠVal id
re ason
ript ors
Ġf requency
ĠS ND
ĠCon stant
Ġdeterm ine
ĠRe act
at om
mon th
_ \
Ġpro vider
is set
LAB EL
D rop
k control
################ ################
o ice
Ġrout ine
O LE
cal c
B SD
ec ycle
ĠGL sizei
Al pha
Ġm ulti
D Q
ĠPy Object
per f
Ġsample s
ĠF irst
qu are
Ġll vm
x ed
< >();
Ġ 77
Ġ% %
Ġnum bers
Null able
Ġs aved
Ġaccomp an
Ġdef initions
se ud
-- )
DR IVER
ĠUn it
c urrency
Size of
Ġst bi
Ġf ast
F ragment
f printf
alloc ate
k vm
pe ll
check ed
g ain
å Ľ
Ġcl asses
Sc heme
Ġd uration
ĠC OL
ct r
ĠP M
D iagnost
ĠS te
Ġread ing
ener ated
le v
Ġno except
Ġim mediate
ay be
pri ate
13 5
ĠE C
or acle
Ġmin imum
Ġh andling
ĠS TRI
F amily
++ ,
UN IT
Ġsign ed
ĠP AR
Ġo c
Ġex act
B z
17 0
B Q
con structor
Un iform
ur st
14 8
B ad
que ues
xc b
Ġsh all
SC SI
x de
ĠP C
Ġbit map
Frame work
Ġ quest
Ġassert That
Ġc ycle
ĠOther wise
Ġad just
so me
Ġgr id
Ġcommand s
Ġre p
Ġn one
us ing
co s
UB LE
dent ial
ĠRedistribut ion
Ġper ipheral
xf s
In s
Ġde ep
th reshold
De v
V A
ĠF L
Ġag ree
ĠINT ERRUP
Column s
Ġle g
ĠM P
EXT EN
OD S
Ġconfig ured
lo sing
Ġh alf
çĶ ¨
ĠP HP
ĠDo uble
Ġreg s
. '
ĠStr uct
Ġ qual
foc us
ĠGL uint
De legate
Ġ" ;
Ġd ue
Ġin dent
Ġaccord ing
h dev
Ġlo aded
x ee
v r
if est
Ġad v
S ND
L F
br anch
5 64
() ]
Ġed it
abcdef ghij
UN C
Ġt cp
back end
Mon itor
p w
col s
Ġex ecution
Sh ift
Ġs pi
Ġm is
Ġversion s
U G
Ġ201 4
P ayload
oper ations
DEF INE
S im
BO OT
Map per
Ġit self
Ġregister ed
Ġp layer
rg b
an it
Ġbo ard
Ex ecute
XX XX
Ġp g
Re ason
Ġinv ok
Ġlp fc
b inding
im ing
ĠS ys
ĠSU CH
Ġdecl are
LA ST
er c
ir c
on es
------------ --
S LOT
Ġcomp letion
L K
k b
Ġsy m
Ġpartic ular
ĠK C
Ġh ook
MC U
y ear
Ġh tml
set ting
Ġv ertex
Ġ*/ '\
ĠRe al
I H
w rapper
IC ATION
ĠC om
Data Type
EN DIAN
SET T
M SI
URE MENT
p md
ĠP ER
ĠU int
Ġpro per
25 8
Ġhel per
HA VE
Ġre striction
Draw ing
3 03
Ġ eth
ar ing
ĠA r
f m
x db
sh ip
Ġbl k
ĠB PF
? "
ĠHE ADER
Ġcons ider
d ap
IO Exception
POL L
Ġde termin
Ġm ath
ĠCon struct
As set
Ġre produce
Ġun less
p ins
15 4
Ġ6 7
get Type
> ()
ĠS TR
e k
level s
Name d
< =
ĠS u
04 3
Ġcon straint
Ð º
Ġk nown
v l
oo se
ĠOP EN
---- ---
OR ITY
lim its
Ġwork s
Ġh dr
E q
con cat
000000 20
H istory
arr y
AT H
net if
form er
Ġc lean
Ġsuccess ful
================================================================ ================================================================
Ġ$ .
ay ment
il ar
SC FG
11 3
STIT UTE
ĠĠĠĠĠĠĠĠĠĠĠĠĠĠĠĠĠĠĠĠĠĠĠĠĠĠĠĠĠĠĠĠ ĠĠĠĠĠĠĠĠĠĠĠĠĠĠĠĠĠ
ĠC MD
Ġw in
Mut ex
Ġw orld
) ::
St mt
4 01
Ġm anager
Var iant
Ġt akes
} ',
ĠH OW
ĠN ON
Ġa x
cr aft
e h
Per mission
D W
Sub ject
vis ible
FA ST
A MP
or igin
ĠSTRI CT
li er
2 14
. ',
D ST
lo sure
Ġ(( __
PRE FIX
Ġstate ment
11 8
Ġb ottom
Cl ip
par ts
Ù Ħ
ĠRe f
Attr ib
SH ARE
ot g
B reak
: '
ST X
comp ile
ang ular
H AN
ST EP
ĠM atch
Ġe st
az ure
j av
N ote
M F
ĠPar ameters
c dev
P atch
d ialog
ĠEV EN
Ac cept
ĠS elf
ĠB ig
Block s
c am
11 9
04 00
is m
Ġhapp en
Ġdev m
decl type
[ -
S MB
Ġback ground
Ġaut orest
AI MED
CH IP
ak ing
ill a
sp ca
ĠPOS SIBILITY
Code c
L at
xe b
ĠErrInvalidLength Generated
Dec imal
VI SED
L U
D H
ĠB NX
d irectory
A U
w alk
Struct ure
Ġn or
Sk ip
Ġcom b
il led
io v
? ?
ap is
xc d
AV AIL
STA MP
' =>
Ġcre ates
ĠAD VISED
'] );
x CE
ĠSTAT US
arg er
Dest roy
sub mit
TRIG GER
w b
\": \"
ĠR x
INE SS
sp aces
ĠCON NE
CUR RENT
For ce
pende ncies
ĠA P
X F
Valid ate
> ("
le ms
CID ENTAL
Ġf irmware
ro pp
ĠĠĠĠĠĠĠĠĠĠĠĠĠĠĠĠĠĠĠĠĠĠĠĠĠĠĠĠĠĠĠĠ ĠĠĠĠĠĠĠĠĠĠĠĠĠĠĠĠĠĠ
s urface
ĠSW IG
ĠRe ce
01 01
on ical
fin ish
' '
ĠS P
ĠIN CIDENTAL
Ġ[] _
Ġs i
D WORD
Ġrel ated
Trans fer
m id
Ġcomponent s
Av ailable
IN ST
Ġres olve
ĠC ustom
ĠI B
Ġc vmx
0000000 4
ir cle
av es
xe a
E ST
IP HER
un g
ĠDISCL AIMED
Ġk w
T ile
cl i
PRO PER
Ġw rap
G oogle
out er
ĠEx p
Ext ensions
Ġcan cel
Ġ" ../
b n
AC C
æ ĺ
Ġdis k
sc alar
Ġsc si
Ġtest ing
Imp lement
sh adow
Ġ} }
Q P
lp Vtbl
ĠPr ivate
Z Z
CON D
D istance
ATOM IC
**** **/
sign ature
ĠSERV ICES
E MPL
2 32
B lob
Ġth reshold
ĠRe ference
T UPLE
P resent
Q t
Pl ace
Con tract
Ġy ield
Ali as
ĠH el
us ers
Ġmedi a
leg acy
ENT ER
Opt s
ĠHOW EVER
Ġs g
we ak
Ġm ult
al i
t wo
h o
in dent
Ġautomat ically
or ing
bt n
Res p
I W
ĠW AY
e ffect
mm u
m ultip
ĠF l
Ġ( ;
Ġconnect ed
Ġ6 3
ĠM on
ĠT imer
re act
Ġ. =
Ġcomp leted
table s
2 25
Ġp lay
d ummy
DE LETE
run ning
ĠĠĠĠĠĠĠĠĠĠĠĠĠĠĠĠĠĠĠĠĠĠĠĠĠĠĠĠĠĠĠĠ ĠĠĠĠĠĠĠĠĠĠĠĠĠĠĠĠĠĠĠĠĠĠĠĠ
Value Type
ĠTHE ORY
Ġ{ },
Ġ5 12
BO ARD
Ġre maining
xc a
ĠL CD
pl ies
SW AP
init ialize
M SC
. (*
Ġt urn
ĠH as
co p
Ġan not
LAN E
ul se
T G
Ġmut ex
Del ta
) ");
Pipe line
maj or
qu ant
re et
Ġm ouse
Ġen coded
rt w
ĠSUB STITUTE
Ser ializer
ĠA uto
ĠM S
ĠCA USED
b ot
Ġ' ';
mm io
CA SE
NOR MAL
V L
Ġt ile
Model s
Ġc t
m as
un icode
ĠComp onent
ĠGO ODS
ĠI dent
Ġlabel s
D MI
w x
in f
ĠJ S
Ġ201 3
p fn
al s
ĠPROC UREMENT
Ġc trl
Ġz one
" ].
Ġb order
st mt
R R
Ġassert True
ĠBUS INESS
P red
K ernel
By Id
EMPL ARY
Ġint egr
); \
ĠEX EMPLARY
ĠS Q
Ġf etch
C nt
En tries
istribut ion
ut es
olic ies
ĠINTERRUP TION
Sc ene
M MC
Ġc e
o ct
Ġ3 8
Ġinput s
Y PT
13 7
ĠDef ine
pro g
DAP M
p at
08 00
Ġ1 27
f un
ĠM I
Ġ% #
ar b
LIN UX
Mark er
pm u
RO UND
23 1
O G
Z X
assert True
Ġfail s
Ġ//---------------------------------------------------------------- -------------
I EEE
Ġ" '
Ġspec ifies
Ġal ias
00 10
ĠG B
3 86
"> <
To S
r al
Ġse curity
RO OT
Ġun used
xd c
n orm
c lean
exp and
pro b
Ġfin ally
-------- ---
O ther
2 0000000
H UB
h int
ĉ Ġ
ĠS m
isto gram
ut down
log in
sample s
Format ter
TO OL
L ines
Sc hedule
[ \
Ġsc alar
I MP
Ġd c
Cl ause
le af
ĠU til
ĠO b
Ġenv ironment
d h
C SS
Ġamd gpu
Ġg reater
PRO P
ĠIn st
n dev
Ġĉ ĠĠĠĠĠĠĠ
NAME SPACE
Ex pect
cache d
L M
-------- -
con t
Ret ry
QU ERY
D one
gol ang
âĸ Ī
Ġc enter
t g
ĠT CP
TO KEN
SER VICE
mm utable
Ġcl ip
rit ical
an a
Ġpr imary
Ġpacket s
re try
< '
Ġe c
13 3
Dis k
local e
time s
d atabase
LE X
Ġsc roll
0 40
yp ed
dev ices
d v
enc ed
ĠHT ML
S ide
Ġlog ging
un wrap
Ġinit ialization
Ġm v
ĠMA VLINK
ĠP A
curs ive
J O
ĠG lobal
Ġb trfs
min or
, (
Output Stream
il ation
P romise
m ost
Ã ¡
12 9
stat es
p ause
ĠArg ument
o y
PHY S
Ġsql ite
post Index
shut down
mem bers
ĠL E
We ight
ON A
IP H
Ġw idget
den try
Ġ201 2
Ġc v
N eg
ĠĠĠĠĠĠĠĠĠĠĠĠĠĠĠĠĠĠĠĠĠĠĠĠĠĠĠĠĠĠĠĠ ĠĠĠĠĠĠĠĠĠĠĠĠĠĠĠĠĠĠĠĠĠĠĠ
Ġs a
TER N
/ %
uplic ate
f ake
M ake
connect ed
Sock addr
14 6
O k
C apture
Mon th
s With
Al gorithm
ĠD ocument
ĠV is
": {"
ĠIllegal ArgumentException
ĠL ay
Ġc nt
name d
d word
Ġc leanup
Ġv a
Ġb inding
T U
li ke
ĠFIX ME
ĠU sed
Ġnot e
s mp
h ba
L SB
ĠBu ilder
D rag
o verride
ĠCon troller
**************************************************************** ****************************************************************
str ip
w ant
xf er
Ġagain st
input s
cr ate
al let
Ġd ummy
m q
(( *
ival ent
valid ation
Ġcache d
Ġ-- >
Ġ5 5
I IF
String s
ri ptions
prev ious
Up per
Ġcontribut ors
r hs
Ġ6 8
pr ite
tern ate
ex tract
G FX
ffff ffff
Ġ4 7
TE CT
wh en
Ġcur r
ĠAt tribute
PRO CESS
ctx t
Ġappro priate
M IT
Ġf ifo
d sp
er ature
0 80
12 6
g ot
ĠP age
ĠInter face
Ġ" =
tl v
ĠDesc ribe
13 6
In str
ĠW R
Ġtable s
IZ ONA
vid ers
Ġt w
OV ERR
Man agement
ĠB ack
G G
dic ate
3 10
O rg
METH O
Ġro ute
con straint
C ert
Ġd a
Ġ" :
B IN
Ġ2 000
E FAULT
Method s
Arg uments
Ġaccompan ied
Ġ9 7
refer red
co ped
01 00
16 9
g reen
(" [
Ġ8 6
ĠB asic
Ġre store
Valid ator
Ġwe ight
ĠF W
a unch
ench mark
(" .
ĠIter ator
DE ST
C enter
sec ret
aw n
ĠEX T
02 1
ĠP l
enc rypt
ĠM ac
iv ation
IM M
MAT H
w t
() [
st m
ĠScal ar
greg ate
ject ed
ar io
N OP
lo ss
ĠE igen
Ġb nx
Ass ign
i et
Ġre ply
B in
g em
f ault
R a
po sed
xd a
Ġis instance
MI I
and sh
s ound
ph ba
i q
w ifi
m ach
Ġrule s
Ġmem set
iddle ware
sub scription
Ġpart ition
Ġw ww
class Name
n ested
D at
T V
ĠE E
Comp at
BE GIN
Ġb ounds
8 80
an ded
N ING
Decl aration
p ow
f v
VERT EX
is o
DEF INED
Ġme sh
ost ream
Ġa m
ext ensions
dis p
ib ling
PRI ORITY
ĠS UN
ĠIn stance
IN GE
ĠEV P
get Instance
Ġg ame
ĠN ull
fe ed
is ing
ĠM ock
Con tact
WA Y
Ġop code
ĠN on
ĠĠĠĠĠĠĠĠĠĠĠĠĠĠĠĠĠĠĠĠĠĠĠĠĠĠĠĠĠĠĠĠ ĠĠĠĠĠĠĠĠĠĠĠĠĠĠĠĠĠĠĠĠ
IT OR
Ġa ux
Ġcomm it
x s
ĠD RM
:: _
ĠHe ader
cre ase
ref s
Label s
Task s
ĠVal idate
aw ait
_ /
ap es
hal f
avig ation
20 4
n ce
pl ain
Ġlicense s
d q
K HR
f ire
g it
Ġr adeon
[ ^
W IP
AL G
the me
Lower Case
Ġ" ");
M aster
inc ip
Ġ201 1
Ġp e
A m
co exist
ĠM at
AM D
800 1
Ġin dices
Ġproduct s
Sc al
k l
Ġcopy ing
U C
VI EW
VAR I
Ġre pl
ail ing
Ġp lease
Event Listener
Ġe ar
user name
18 8
Int Overflow
ĠDesc riptor
sh are
ĠM IN
W r
Ex ec
T K
T OR
bl ue
PRO G
cap ture
Int errupt
Ġindic ate
0 64
() }
Ġal ignment
Dis patch
AL PHA
M s
Ù ħ
ĠT ry
ĠR C
PC STX
rtl priv
Ġinclude s
ER N
Rep lic
h cd
column s
o i
ĠAPI ENTRY
EN AME
VO ID
te gr
C XX
M ID
ul ong
allow ed
H ex
m ine
ĠS K
Ġat tach
AL T
TIF Y
m box
Ġ201 9
; ":
duc er
IC S
7 00
Ġde leted
ward s
CALL BACK
RELE ASE
ml x
Ġown ership
Ġd s
E mail
Trans ition
it o
T W
, !
Ġw rapper
12 1
j Query
Action s
Ġl at
ĠR A
Ġr d
Ġpro m
ĠI d
| \
Ġ6 5
B o
Ġu id
vis it
Ġh ig
cs r
Ġtr ansport
Ġp atch
16 5
Read y
w msemse
ar row
ud c
th at
GR AM
Ġd iag
Ġget s
Ġp d
H older
PIX EL
Ġn ested
FR INGE
. +
8 25
ic ate
IN C
En ter
Ġe val
Ġname d
bi os
Ġpart s
ĠH ost
32 0
Ġdes ired
col lect
ĠAR IZONA
Ġ' _
to ggle
G F
F RA
W rap
RE O
ĠD C
Ġsc hedule
Q E
; )
INT EL
] ",
Y ear
di ction
ab ly
ĠRe cord
s core
ĠErr IntOverflow
G uid
20 21
func s
ï¿½ï¿½ ï¿½ï¿½
ĠSH R
v dev
ĠM ark
seud o
a ud
Ġsw ap
part ition
Ġ ----------------
WINDO W
lib rary
Op code
S ig
or se
DC ALL
re m
Ġ201 0
P t
Ġmsg len
h f
o en
F U
us r
________ ________
H tml
GA IN
lis ion
S oftware
C AM
Ġd p
ext ernal
TO M
Ġw m
Control s
Ġ" ")
oo th
01 6
WA KE
S ee
FRINGE MENT
Ġlocal e
Ġpublis h
comple tion
v k
Ġm apped
ĠN ext
an ization
ites pace
ith y
istribut ed
alanc er
Ġdest roy
13 1
++ ){
ph ase
s aved
Ġcomp lex
Ġf riend
ĠĠĠĠĠĠĠĠĠĠĠĠĠĠĠĠĠĠĠĠĠĠĠĠĠĠĠĠĠĠĠĠ ĠĠĠĠĠĠĠĠĠĠĠĠĠĠĠĠĠĠĠĠĠ
E nt
MO V
lu g
UN IC
O WN
ĠNet work
ersist ence
read l
Ġc ategory
15 9
k ill
Class Name
/> .
mb us
SC II
G X
pt s
XG BE
Ġpoint ers
aw t
Bit map
[] )
ext ent
ĠM an
32 7
Comp iler
ĠB l
"" },
ĠApp lication
Ġ* ****************
ol id
14 0
Ġin s
Attach ment
IN ET
Su ite
U sed
Ġal igned
Print f
V LAN
ap im
Ex tra
QU F
Ġg oogle
ik i
DL L
Ġ////////////////////////////////////////////////////////////////// ////////
$ /
Ġent er
in ery
over flow
bt c
x l
Ġtr ain
ident ifier
Ġp b
ĠCONNE CTION
Ġed itor
36 0
L if
' },
20 6
* =
al led
ĠT LS
Sh adow
ĠL ED
in voke
Ġin crement
=- =-
ĠGL float
IC Y
P ending
Ġbu ilt
12 2
th r
line ar
Ġm o
S ite
Ġ4 9
ig ration
ĠD on
ĠC ommon
C fg
Ġa ck
fail ure
Ġh f
as is
in str
G ateway
Ġ) :
SER IAL
ĠCh ange
mg mt
G RE
Ġadd resses
Ġhere by
re verse
ad ap
M Q
Ġgroup s
0000000 8
m n
ver age
Sub scription
PRES ENT
d ac
per m
S peed
ĠGener ic
thread s
CB C
ĠP K
Ġs q
E valu
De ployment
Ġd ot
Cap acity
å º
it tle
', /*
Comm it
ĠF F
at s
A mount
init ialized
r ase
de coder
Le g
, _
ĠF lag
refer ences
Tr aits
writ ten
Ġm c
UT TON
Ġar ound
Ġprob lem
Ġt orch
cogn ized
IRQ n
mon itor
C amera
23 0
03 0
ach inery
Ġĉĉĉĉĉ ĠĠĠĠ
im m
Ġconfig ure
sc ape
Ġ20 20
Ġl hs
Al ign
s heet
å į
filter s
E INT
Alloc ator
Ġt ensor
o logy
Th reshold
ĠL ONG
MA LL
R AD
Ġp i
ansp ose
Ġc losed
INTE GER
} "
D ot
S UR
gener ator
DO UBLE
Ġ200 8
For ward
ĠLen gth
trans late
, \
ĠLib rary
DEP TH
h ot
) ',
cre ated
ĠSh ould
ĠP ower
ĠCon tent
ĠM EM
ing er
Init ialize
MA STER
Ġ" (
to LowerCase
our s
ak en
W rit
ar ante
4 74
Ġĉĉĉĉĉĉĉĉ ĉ
Cur ve
oen ix
re lative
Ex ample
f old
h b
ĠInt el
& #
Ġ Î
Ġ* ************************************************************************
n an
dis c
h dmi
Ġ4 3
X P
ĠA B
Ġme mb
v let
ail box
* )(
Ġn b
_ ##
sc r
reg istry
as ing
Ġc os
85 00
Ġ ))
é Ģ
Ġ200 9
04 8
IN FRINGEMENT
201 7
Y h
im ent
Ġv s
def s
ml me
ĠR UN
Ġor ig
1 56
Ġsome thing
Ġs in
Con sole
Ġthread s
15 2
P ART
og enerated
ud p
Ġ uri
h dl
create Element
Ġcl one
Ġ^ =
N aN
ĠSw itch
ide ntity
e valu
Ġt re
ĠHow ever
å ¼
ol er
co eff
config ure
_ ),
SI M
Ġ ));
Ġ angle
ĠComp are
Ġp kt
Ġwait ing
cl ang
01 1
Con s
semb ler
vol tage
ĠB oost
Con sumer
Ġm ount
st ick
ĠC lose
map s
quire d
l r
ĠD ec
ĠL inux
ref resh
BU ILD
SO FT
In clude
ĠO k
aa a
RT M
ĠBO OL
ĠUn icode
The me
Ġ200 7
N AM
Ġ7 8
web pack
get Message
^^ ^^
c id
20 8
ĠC UR
end region
() (
Ġgover ned
Oper ations
wo od
Ġvar iant
ĠP F
. """
Ġv p
ul a
ELE M
Re vision
re marks
ĠT ensor
Ġ" )
Ġp ref
Res erved
ĠSt op
STAN T
ATTRIB UTE
du ced
An aly
Ġf ragment
ĠML X
X FF
ĠEx pression
g uid
er ies
ĠQ t
C annot
ult ure
ĠComp ute
a es
debug fs
v x
13 8
e locity
comp ressed
AT T
ĠOB J
ĠDECL ARE
2 17
ĠE ntity
P ad
Ġinst ances
if act
: ",
DE ON
INVAL C
Ġcomp ile
Ġ[ %
que ued
Dis abled
content s
AP H
Ġap plied
a im
RE A
Ġl g
Ġi r
M issing
ig u
Ġm b
u FF
Ġsuccess fully
Ġc are
Ġc y
******** ****
Ġs un
Ġcode s
Ġvis ible
Ġph ase
fore ach
Menu Item
14 7
O ld
W ire
201 8
or ph
Ġreg ular
Ġn l
sw ing
Ġpro mote
Return s
DESCRIP TION
ampl er
METHO DCALL
Ser ies
get String
Ġcheck ed
apim achinery
b est
ff e
alloc ator
in ess
, {
Ġ{ ""},
F inal
n fs
Ġm er
Ġp a
get Id
ĠT C
d si
B ottom
st and
Ġe mail
up load
ĠS ER
Sup press
44 4
METHODCALL TYPE
Ġi wl
ĠTh row
uff le
m isc
ver bose
i ation
se ctor
SY M
Cl asses
000000 1
Ġen coder
SE CTION
Ġlog ic
serv able
qu ote
h ome
andsh ake
mbed ded
al ity
ĠV olume
Ġnv km
spin lock
+ (
> "
Ġoper and
AL LOW
ĠP L
D IP
ip pet
C ARD
ĠS A
v g
Set s
P TION
Con version
x mit
ĠO ne
Ġword s
Ġpixel s
Ġlicense d
Ġn orm
E mit
[ [
******************************** ****************
Ġhe ap
Ġsock addr
value Of
ffff fff
ad just
Ġ- *-
sl ab
FB Q
Ġ' {
Ġj oin
(' /
C IPHER
r atio
Ġdecl ar
000000 10
I Q
Ġs ensor
unc ate
ĠMA SK
rc v
ren gth
U UID
Ġbu g
arg c
ĠU I
Field Mask
ELE MENT
se conds
Ġexp and
rel ation
T p
x attr
UN LOCK
base d
ĠT PI
> '
iph y
W C
h ave
Ġs at
Ġt un
front end
WD G
Ø ±
IO CTL
sh ader
Comp ile
p ic
An alysis
W BM
3 01
er ase
not ifier
ĠC K
Ġd y
å ľ
sy n
sn printf
15 8
DIS P
Ġcan cell
EN U
CODE C
Ġgo od
v port
R P
Pr ice
ĠArg s
M IS
ĠA udio
qu ir
ializ able
get Attribute
Ġk zalloc
ĠB N
ĠSe arch
act ivate
ĠSt orage
HER E
ĠO K
Ġhandle d
Al ignment
Y X
V ol
5 01
IM R
ĠD el
A rt
o h
me ssages
c ycle
S ID
ĠC V
A Q
B IF
char s
lect ron
P adding
now led
Ġ utf
Ġread l
Ġ/* ----------------------------------------------------------------
B QU
Ġt m
Rece ive
Ġp ix
p df
Deep Copy
Ġt ty
ED GE
(' ./
ĠConfig ure
Cre ated
ĠV ER
ĠLog ger
Are Equal
Ġconstant s
ĠTR ACE
py x
ĠOper ation
Ġf it
Ġprec ision
PROTO COL
Ġb p
S ound
Ġ( {
T MP
ĠF rom
7 32
it ect
Ġch arge
âĸĪ âĸĪ
", {
Str ip
h u
Ġimp licit
ĠPar ameter
PARAM S
87 23
Ġse m
de ep
E CD
w ind
19 9
3333 3333
L ite
Ġ7 0
ge ometry
LA S
node Type
Ġph ysical
D DR
RD Y
sv g
ĠN A
Ġreg ex
U ME
ent ion
ĠTO BN
Ġ) {
Ġmon itor
Own Property
iv ery
ĠC P
Ù Ĭ
\", \"
G UID
Ġinst all
AL I
s ch
Ġde tected
CR TC
sub string
G NU
Ġp urpose
ĠString Builder
* >
Ġh int
ĠR ange
ad r
CLO SE
Ġs leep
S iS
Path s
Ġo ps
mp i
M PI
ĠN T
reg ulator
UN T
Ġocc urred
de precated
F ake
s x
Ġs ending
TR L
S UP
PROPER TY
Ġex ec
attr ib
> :
Non Null
T CL
ializ es
ĠG u
Ġmon th
Ġlong er
de pendent
Ġcal culate
imp lement
US R
l int
Ù Ĩ
l iteral
Re ply
str ap
14 2
Not ify
g d
N P
AUTH OR
annot ations
:" -
ĠF N
ĠImp lement
RE QUI
im its
pipe line
R v
Cl one
? .
å Į
Ġcons ume
20 7
log ging
ate st
} '
Ġbr anch
] ['
ĠL ock
AD V
Ġaut ogenerated
ise conds
EX IST
mark er
B UTTON
20 3
Back end
Pr iv
PF C
me trics
14 5
x ception
Ġ ì
sm all
SW ITCH
int egr
ĠR ender
Ġup dates
Ġgener ator
s as
ab b
M ult
Ġf t
ff icient
Ġsc heme
DISABLE D
16 6
Ġsynchron ized
Ġst age
G INE
Ġpar sing
ĠC F
Ġreg ulator
Array s
/ \
Ġunder lying
ĠD es
prec ision
COMM ON
18 6
par k
parent Node
alloc ated
Ġ ke
form ance
ĠR F
D erived
ĠCall back
OVERR IDE
ĠI E
F ilename
let s
Sub sc
ĠAL TER
Ġcode c
Ġd ialog
RO T
ĠE ach
Ġsort ed
key word
Ġ" {
201 9
Ar n
" (
Ġ ut
P ane
Ġcheck ing
R TL
DE TAIL
U F
AT IVE
Ex ist
-+-+ -+-+
Sw ap
he st
am ount
//////////////////////////////////////////////////////////////////////////////////////////////////////////////////////////////////////////////////////////////////////////////////////////////////////////////////////////////////////////////////////////////// ////////////////////////////////////////////////////////////////////////////////////////////////////////////////////////////////////////////////////////////////////////////////////////////////////////////////////////////////////////////////////////////////
incip al
24 4
Ġimmediate ly
ĠL abel
spec ial
[ _
Ġpro cessed
24 2
er ate
ad o
i ommu
t or
ç ½
ropp ed
d get
MAC RO
ap er
ĠUn ivers
He ap
p oly
") ),
ar c
ĠA ES
23 9
ĠP in
PO INTER
list ener
Ġs sl
Ġ$ (
all en
ĠI XGBE
l cd
DECL ARE
ĀĀĀĀĀĀĀĀ ĀĀĀĀĀĀĀĀ
ateg ories
link s
Ġh r
Ġv ery
H F
Ġrepresent ing
W P
0123456789 0
ing roup
Ġ4 6
An chor
U x
ĠEn try
f irmware
Ġcop ied
Ġsepar ate
Vis itor
lan k
ĠRE MOVE
201 5
h istory
G UI
p ag
ĠEx port
mt d
sc heme
3 02
h old
Ġs ender
ĠM ust
Ġun def
Ġ ER
V IR
ĠN UM
l k
Ġarch ive
im ages
G M
A ws
LAN G
Ġp lane
ID s
ĠGener ate
VE CTOR
4 0000000
é ĩ
em bed
ĠCon nection
Ġb fa
a res
24 5
In voke
Ġse ll
: ]
' ):
vent ory
Ġnot ification
Ġent ire
Ġ" $
ock er
Ġde tect
Ġ è
ĠRaw Syscall
am age
om ent
Ġ200 6
ĠP WM
DU MP
ĠF e
st age
. %
15 7
bi as
ð Ł
VE C
14 9
dig est
ac et
ized Buffer
Ġpath s
W F
Ġx xx
p od
fer ences
Line ar
, /*
LE T
|| "
ToS izedBuffer
ĠA WS
æ ī
Ġiss ue
data set
n and
16 7
20 2
Allow ed
x abab
Ġo ct
sb i
D NS
mine craft
PER IPH
dest ination
tf m
Ġsn apshot
Ġdim ension
Con v
3 04
Ġgener al
fl ate
ac er
In dices
ĠSet up
S LA
åı ĸ
Ġd f
TIM ING
N K
17 8
D ist
ĠEx pr
ch no
Ġv i
Rel ation
Pr imary
ol ate
ä¸ Ģ
Ġrt w
PC S
> ");
Ġdis patch
Be en
j ack
CR YPT
b ine
rel ax
en ario
ĠG P
ĠNOT ICE
Ġy ear
ancell ationToken
ra ise
Init ial
Object Meta
window s
U A
Ġis l
ĠDis play
Ġp an
Ġnot ify
Ġstart ed
Ġng x
VM X
ĠN ET
ĠA M
l hs
B W
ĠPCI E
RO UTE
G N
FieldMask Bit
ĠR FC
Hash Map
Ġden try
be ans
Ġre verse
g spca
C X
ro ker
d ns
ag ger
ĠF R
Ġ'' '
ĠCLA IM
m ore
Ġany thing
Sy ntax
f ence
Ġoffset of
40 4
vo ice
am ing
str len
or b
Ġhandle s
ä ¿
L in
Ġc i
ĠM edia
bus y
[ %
D om
le s
Ġ} ),
f an
ĠC ur
R pc
ol ine
8 12
Ġme tric
st ar
Fe ed
B P
20 5
sub ject
B LE
By Name
V K
ĠAl low
Tool s
ĠU s
Init Struct
Ġ9 0
S afe
In line
: (
' ].
std io
b fa
f requency
Ġw ake
en o
ĠA PP
__ ((
ĠP ark
ĠF P
ĠN ow
Ġgu arante
Part ition
Ġm avlink
ser ies
MS B
Ġĉĉĉĉĉ ĠĠĠĠĠ
OLE AN
C ould
Component s
æ ł
THRESH OLD
ub y
, '
sq rt
6 55
Ġpipe line
Ġper mit
h y
PRO FILE
ĠBY TE
Rad ius
Ġ5 2
ist ent
Ġb c
Ġser ialized
Ġz ip
ot ent
C ost
PE ED
Ġl iteral
T wo
CR YPTO
Ġass igned
ä¸ į
Ġc apture
RE PL
Reg ex
r n
Ġt ail
ĠD est
E CC
St age
Comp letion
' ll
get Class
Work er
ĠĠĠĠĠĠĠĠĠĠĠĠĠĠĠĠĠĠĠĠĠĠĠĠĠĠĠĠĠĠĠĠ ĠĠĠĠĠĠĠĠĠĠĠĠĠĠĠĠĠĠĠĠĠĠ
ad j
Re view
.* }}
le tes
m map
B IO
ĠD PM
89 9
command s
Ġline ar
Ġend orse
SA I
Ġ4 1
Ġregard ing
Ġdefault s
S em
ĠDr iver
x p
Array List
b ounds
POL ICY
ĠL WIP
<? >
P KEY
ĠRuntime Exception
arch ive
Check ed
Ġconvert ed
Wh en
C OR
EX PECT
âķ Ĳ
TYPE S
H w
ĠSt ack
2 23
Ġ1 01
t ex
Ġme trics
in ity
R TA
l ab
Ġ} \
Ġde coder
00 9
tent ion
Ph ase
ap ed
R atio
Ġrefer ences
UN IP
Ġf req
IN K
Comp lex
MODE L
sub str
Ġabs olute
miss ing
int o
SES SION
ur ations
Ġ9 6
CON STANT
I ss
NOT E
all back
Ġf f
ĠQ ue
c amera
ct ype
Ġm alloc
Ġoc fs
ad x
un der
Back up
LE G
*/ ,
")) );
Inst all
oun ce
F d
Pr imitive
SOCK ET
ĉ ĠĠĠ
ee prom
Ġoccur s
de tect
Ġ" --
ĠC X
RE L
Ġ(( ((
Ġfloat ing
format s
v q
er ator
ĠS ave
Ġj s
TIME STAMP
SET UP
At t
Ġquest ions
gle w
Dest ination
SHARE D
ĠP I
ud a
Ġ1 23456789
Ġm k
Ġ' )
mt u
Request s
Ġb lob
N ested
C r
sv c
Ġmacro s
d yn
iv ing
Ġin structions
H orizontal
d ers
ĠOPEN SSL
dr ag
ĠM OD
NotFound Exception
Up load
ĠVar iable
SI X
ĠC omm
E K
per iment
15 5
ĠD P
Qu ant
packet s
Ġrecord s
xx xx
ĠC ache
Enumer able
INT EN
ip ient
ĠT ool
Ġc ertificate
Ġre ally
EN OT
last ic
INIT IAL
ĠIP v
B G
SIGN ED
Ġagree ments
NO RE
! ");
u D
AD AP
! --
F ast
IT AL
Ġs r
Ġ200 5
ĠDate Time
oun try
CONT ENT
Ġ5 3
22 2
work er
ĠHash Map
pre d
25 4
24 9
h ub
Ġext ended
ĠSy mbol
ain s
co res
al gorithm
Ġcomp ression
] ).
Ġc a
) ];
Un ique
Dim ension
C Q
rad ius
Ġ` ,
Ġsp an
m ust
trans ition
ĠS ince
T PC
36 7
al es
amazon aws
ĠP ost
opt im
bt coexist
ĠB its
z illa
Ġobtain ing
CO EFF
f it
Ñ ı
ĠT T
th ers
CT P
ĠT S
to uch
on al
Ġwh ose
u zz
ar i
Un able
pl t
Ġde p
fl ip
") },
Ġreg map
Ġ> (
19 0
he el
=[ ],
l un
< _
Ġ*/ ,
aut orest
null ptr
Ġb and
ĠVer ify
ĠU RI
Ġ* ****************************************************************
Access or
ĠS tore
TL V
Ġport ions
ur ther
g m
ĠNON INFRINGEMENT
8 0000
ampl ing
Ð ²
14 1
Ġs id
IS P
Auth entication
ab ric
Ġ>> =
ĠErrIntOverflow Generated
Ġwrit es
ver ity
L ang
n able
av or
ĠL IB
mat er
ass oc
q os
Ġf ake
B rowser
ip c
ĠD raw
Dis card
Ġc over
Vis ual
ĠĠĠĠĠĠĠĠĠĠĠĠĠĠĠĠĠĠĠĠĠĠĠĠĠĠĠĠĠĠĠĠ ĠĠĠĠĠĠĠĠĠĠĠĠĠĠĠĠĠĠĠĠĠĠĠĠĠ
ĠM E
ĠR out
sc ene
st s
Ġas m
amp oline
D ROP
Ex tract
20 56
ĠV irtual
Ġser ies
std out
Ġn n
Z W
Ex ecutor
23 6
18 4
ump y
Rot ation
ĠLe vel
ch k
ĠDE AL
copy right
D IM
Ġmodel s
Ġl v
j a
Ġo mp
G CC
ĠP IO
ĠAUTH ORS
ME TA
PRIV ATE
2 16
Ġ5 4
un e
Ġsl ave
ĠM ain
l ambda
map ped
m icrosoft
Ġm sm
FIN ISH
8 00000
Ġ art
Ġlimit ation
S el
Br anch
FO UND
Ġreturn ing
( ::
path s
$ $
b sd
ĠS IM
frag ment
S UN
C V
dap m
g mail
ĠRE T
17 6
Ġprocess or
ĠT ree
< >(
17 9
EXCE PTION
b x
plugin s
ans ion
a id
Ġm akes
64 4
AB ORT
Comp ute
PL AT
Cre dentials
09 6
i ro
st it
Ġcorrect ly
un its
Ġ' [
I ELD
Ġal t
01234567890123456789012345678901234567890123456789012345678901234567890123456789 01234567890123456789012345678901234567890123456789012345678901234567890123456789
Ch art
( ",
UNIC ODE
ĠOr der
m agic
h h
UN SPEC
Ġre interpret
control s
Ġm uch
sw er
ri e
4 54
Ġ' ../
Ġgl yph
ĉĉĉĉ ĉĉĉ
HD MI
Ġgl ad
R ound
Ġ/ ****************************************************************
Ġun its
) ||
R IX
ro om
ĠDEAL INGS
R Q
b ulk
PEND ING
DIS PLAY
as d
ĠNOT ICES
con current
22 6
Diagnost ics
ĠL ast
pr t
f id
mode s
Ġb ank
Ġcomp arison
Ġpar allel
00 20
m ic
0123456789012345678901234567890123456789 01234567890
De pendency
v ing
Ġ123456789 0123456789012345678901234567890123456789012345678901234567890123456789012345678901234567890123456789012345678901234567890123456789012345678901234567890123456789
Ġ1234567890123456789012345678901234567890123456789012345678901234567890123456789012345678901234567890123456789012345678901234567890123456789012345678901234567890123456789 012345678901234567890123456789012345678901234567890
g ree
A Z
FIX ED
Î ±
Ġf lat
par sed
str ong
CT S
Ġcompat ibility
Ġde sign
j i
W B
80 7
&& !
Ġaction s
Ġĉĉĉĉĉ ĠĠĠĠĠĠ
Ġ1 20
2 11
ĠM V
CO VER
TH IS
Con tain
le ave
) >
} `
T B
=== //
OV RD
W MI
t od
GR APH
ĠCON ST
$ .
ĠR D
gg est
Ġb el
"}, {
m vm
Ġ9 40
] |
f loor
S ender
Ġdata set
s printf
anch or
i ence
cap acity
Ġsim ilar
fin ity
sm c
000001 00
æ į
e cho
B ook
22 9
D EN
z en
Ġthrow n
Ver ify
Th an
Ġ5 7
J K
go ing
Un icode
G ED
ĠS p
S FT
el ist
56 5
parent s
Ġsup plied
E AT
M CR
ET TER
j iffies
Des er
Str ide
ĠU SER
ĠL imit
function s
u F
ĠU Int
day s
er ce
S CHED
ĠNV IC
st e
Ġn f
ass oci
Ġc ps
Ad v
Status TypeDef
Ġmark er
Ġp anel
p ull
ĠR el
Ġend l
'] ))
Ġp x
w dt
jo urnal
O ps
default s
Ġth ree
i ance
ĠD WT
201 6
ynchron ous
18 5
ĠG EN
ĠTIM ER
AC L
++ ++
Ġc od
+ )
ĠP ass
ĠT ARGET
He alth
normal ize
ĠM ulti
a q
O O
18 7
C AT
1 89
Us ers
ap ic
Ġarray s
un ity
w ar
Ġd om
Ġi de
24 8
ame l
ĠSec urity
re start
Ġs urface
Ġext ent
Ġ Ø
Ġm i
Ġ6 6
(' .
po ch
. ")
hel lo
] ?
M argin
fd s
à ¦
COMP LETE
p lot
) }}
ab ling
Ġpro be
22 7
Ġcallback s
à ®
I ES
Act or
Ġd x
Fr ont
type def
Ġ esc
Ġ0 2
R AT
AN CE
k i
x u
å °
os er
Ġd vb
ENC Y
MA CH
e i
ĠCol umn
Ġc lick
Run ner
MC S
Ġdeep copy
Ġhe x
Ġte gra
Ġmin or
mov es
ĠC apture
back up
ĠAlloc ate
ĠR ule
present ation
Ġi io
st or
s at
Ġlog ical
Ġl ambda
render er
19 4
ang ing
sql ite
Ġv irt
T AB
f uture
ĠPro gram
ĠS EC
Ġde ad
Al ert
33 3
iz ing
ĠP S
ĠSD IO
Ġretrie ve
Ġpos itive
Ġre start
Ð ¼
Ġtrans mit
Ġcontribut or
Ġacc um
ast ic
in ator
Content s
or n
Ġw on
Ġc mp
tr i
Ù Ī
89 94
R OR
GENER IC
Fe atures
19 5
q e
PAR M
j p
16 3
method s
Ġl ight
ĠD T
\ '
ĠPark way
ĠL ETTER
DO MAIN
B RE
Per cent
IP u
, $
ON ENT
dir fd
Ġco efficient
Ġequ ivalent
av g
Ġsu c
ro py
ms i
OT H
h ard
Ġout side
L R
Ð ´
DA Y
re cognized
14 3
OP S
k lm
o ch
ph oenix
ĠA MD
Ġw l
Track er
Ġstart s
em o
oler ance
æĹ ¶
ab i
17 7
SETT ING
an o
D ump
C riteria
Ġcheck sum
UD P
r anges
m al
H ID
ĠSk ip
sh r
rece ive
az z
late st
Unm arshaller
iv ot
19 7
r upt
PP ING
ĠEx ternal
") :
ĠIn sert
ĉ ĠĠ
30 6
ĠH igh
23 7
ort ex
ap on
P oly
Style s
Ġs ite
right ness
Ġb fd
Mem bers
col ors
mix er
xC A
dr ive
S heet
pa que
MIX ER
Ġso v
ĠB IO
W K
81 32
ms r
n id
ĠF lags
:"- "`
X N
F etch
xB C
div idual
Ġj o
ff d
To kens
N LS
op a
Ġr f
ĠE GL
plu g
Ġin voke
Ġ RESERVED
2 13
ĠM AP
Ġa st
(& _
yp ass
enc il
Ġp oly
RE PE
Ġmodule s
q s
W REG
ĠRe lease
Ġd ictionary
Rece ived
Ġbound ary
std lib
de serialize
Ġattr s
tl b
Ġat om
Ġl inux
Mill is
sec ure
17 4
g ui
Ġfin ished
Ġ* __
Ġext ensions
S X
ĠD OM
P UP
âķĲ âķĲ
Ġfin ish
ĠA sync
SR AM
ur able
ĠP O
J OR
b rowser
PF N
IF LA
ch g
Ġwh ole
ML X
EN COD
di an
ĠSys Tick
ĠRe ct
Ġ 89
Ġwh om
å ¸
17 5
Ġc rc
Bz msemse
23 3
ĠM Y
uFF FD
ang o
Ġab le
D iag
Ġstat es
char acter
Ser ial
Ġtrans ition
Ġdecl aration
re duce
t z
Ġback end
ms m
f older
ighb or
ad get
Ġr ank
. ";
ĠĠĠĠĠĠĠĠĠĠĠĠĠĠĠĠĠĠĠĠĠĠĠĠĠĠĠĠĠĠĠĠ ĠĠĠĠĠĠĠĠĠĠĠĠĠĠĠĠĠĠĠĠĠĠĠĠĠĠĠ
SI F
Ġp lan
l as
pr io
17 3
s il
un pack
ĠRed wood
24 6
Ġbegin ning
g ers
Ġc ookie
Sy m
A SH
20 9
dec imal
Ġun expected
Ġm ill
aff ic
mo us
ĠSh ores
un ct
Ġ-- -
Ġperson s
Ġ940 65
VOL UME
ins ic
Ġr pc
Ġ// ===
S US
Read Only
i ated
w eek
p le
xC D
() },
st ub
is Array
ä» ¶
Ġacc es
Ġhe ld
Ġ7 2
Q T
H ub
ĠSY SCFG
VER IFY
E O
'=> '
l ator
Ġf urn
3 000
m ad
H alf
me l
s lots
F AN
Ġexecut ed
r ng
Ġmemb ers
) <<
Ġqu ant
in i
d ash
T REE
Ġattemp t
' >
24 7
per cent
tim ing
SH ADER
xff c
ĠI M
r ates
con tact
Ġdec imal
Ġp k
sn apshot
Ġ200 3
Ġv x
tun er
Ġm ix
ph one
load ing
Ġinvok ed
Inst ances
Ġu art
at ern
Ġco ordinates
Ġcre ation
ust ed
(& (
At om
Ġv f
ag ed
Ġg id
H ave
32 8
stant ial
CB it
Ġauth ors
å Ģ
at ial
Warning s
F act
is f
ĠIN VALID
ht im
PTR ACE
Ġman agement
Ġcon tinu
Com bo
Ġsub stantial
ap sed
H V
æľ ī
SP R
out b
P W
Ġto String
SC I
Ġout er
ut ed
ib ration
Gener ate
offset s
l w
L DO
Ġpre pare
00000000 0000
DESCRIP TOR
9 00
ĠĠĠĠĠĠĠĠĠĠĠĠĠĠĠĠ Ċ
klm nop
crypt ed
Ġlo ss
arch y
Ġ/ ******/
Ġde precated
Ġfurn ished
Comp leted
To uch
Ġfr ont
Ġ200 1
In dent
g oog
(" #
Ġresource GroupName
at ype
CC MR
Un safe
ĠA ST
ĠD istributed
PH P
ĠZ STD
re peat
ĠM ove
01 2
MULT IC
) &&(
act ivity
Ġperform ance
ffer o
xff f
ĠA ffero
able s
Ġbet ter
um ask
W eek
use s
W nd
g fx
In tegr
r mt
32 3
S OL
Ass oci
n av
23 5
Ser vlet
Ġ... )
80 9
Ġde legate
Ġim ages
EN ET
000 7
Ġc ost
Ġ6 9
SIOC G
al ert
c info
U nt
ĠP PC
Ġt d
ĠG CC
ĠM achine
F AT
ĠO ver
æ Ŀ
ĠAd dr
Ġn d
ir cu
Ġbe come
ĠG ame
P ress
Ġoutput s
Ġsec ret
EL L
ĠCore Debug
I MPL
Ġe m
TA CH
& ,
ĠO ptions
av ers
Check er
Ġs il
EN V
Data set
ĠPy thon
/ .
ĠB R
String Len
st roke
Ġq ed
r sa
n m
Ġoffset s
Ġp f
19 8
mi i
Pro b
MEDI A
Equal To
cre te
Ġatt ached
Ġh it
MP U
Ġtemp orary
M ajor
ĠWIN API
Ġp o
Ġp ur
ĠR S
Ġo l
*= *=
ĠSC SI
ME MBER
x AC
ony mous
ĠRE SET
pro d
greg ation
Ref resh
N av
ĠL anguage
B oot
Su ffix
M ust
ĠSe ction
> {
k Instruction
ĠCO DE
ĠTest s
tr ap
ĠS MB
m dev
off s
Constraint s
ĠP ut
ĠA IF
H U
8 192
as sembly
Ġ7 9
Ġm argin
ĠNe ither
ĠI T
me an
)) :
Mod ifier
def inition
(" <
ENT ITY
Se parator
xF D
AL OG
dev elo
C atch
Ġs ctp
unic ation
SIG NAL
Ġm aint
Ġq l
ĠC AP
5 000
0000 03
ain ed
e cc
Ġph ys
to Equal
COMP AT
Mat ches
Ġident ity
ĠWR ITE
80 8
CBit FieldMaskBit
ĠA ws
pre ter
Ġid le
l and
30 7
ND ER
Ch anges
Ġmat ched
Ġd type
Get String
P ersistent
PER M
j it
Ġ" __
Ġstruct ures
ach ing
mut able
up dated
15 1
F ault
Ġrad ius
Ġc amera
k v
N AND
Vertex Attrib
Ġre cv
S OR
Char s
iss ue
p ref
D K
ĠCon tainer
ind io
19 1
q rst
å ¯
RE M
part ial
set Attribute
su ffix
Pop up
Ġl if
RT F
M any
é Ĺ
F old
SA FE
exception s
ator y
ir ation
ced ure
Ġalloc ator
wq e
2 12
Cal led
ä¸ º
33 5
Stream s
Event Args
OS PEED
x i
ĠGener ator
Ġf older
ĠB us
can vas
Ġ urb
ĠR PC
Ġin str
down load
__ ))
Ġc f
19 6
Ġ" ./
18 3
add Class
ĠUn marshal
........ ........
æĺ ¯
ĠQue ue
Ġd i
Ġsy ntax
x AA
M ount
Ġp ll
set Value
Number Of
c st
Ġencode Varint
Ġhold s
M IPS
ä ¼
RESP ON
Ġp Src
h ref
Me asure
gu ard
ro me
REC V
ĠMax imum
ĠAl so
(" -
Filter s
Ġr sp
ĠP riority
Bl ue
Log in
ĠC loud
Ġsh adow
c go
Ġv b
Ġ1 06
d ss
\\ \\
MT U
ĠTrans fer
ĠR ow
ĠF C
Comp osite
Ser ialize
T mp
Cre ation
k ern
ar er
Ġr and
mod ify
Ġcomput ed
Ġf amily
CONST EXPR
REA CH
C ross
in a
cp us
ack et
re vision
PR IO
Ġp ull
ON CE
16 2
Marshal ToSizedBuffer
sm art
Ġde tection
Ġmark ed
Ġcon t
alar m
SE M
ACCE PT
ĠD U
igu ous
ĠP lay
ĠVal ues
<< <<
ĠS ingle
ĠCon structor
ces ses
ag raph
ĠR O
ST E
With Context
M NT
:: $
Get Type
Ġre main
Ġfe ed
ĠProto col
Ġin correct
Ġfilter s
m icro
å Ĩ
ĠE qual
01 4
yy ch
st able
py thon
ĠSTD METHODCALLTYPE
clk s
25 1
Ġload ing
F oo
Ġb d
iagnost ic
Ġkw args
Ġres pect
M H
Ġs ublic
23 8
Ġsublic ense
s pe
append Child
Ġh al
PO OL
Ġb pf
itect ure
log ical
REPE AT
AM L
S SE
FIL L
j b
Level s
================ ========
Ġ? ?
CH K
MA JOR
relax ed
] }
Ġauth entication
Ġ7 3
V k
19 3
INTER VAL
ch n
NAM IC
ĠN AME
M ME
Fl ush
V X
ĠTe mp
ĠC FG
co st
In gress
Ġt i
Ġp w
sys fs
BL IC
Ġr p
de tach
P aint
Ġm id
N t
99 0
ro tt
) __
A SYNC
Cal endar
ro ken
ĠT op
se p
( ['
ant ic
inter faces
A O
%%%% %%%%
u ce
g i
x AD
ill ing
M gr
Id le
an aly
c annot
Ġ/ =
B AND
ĠS em
ĠL Z
Ġ// $
Comp arator
Ġ& _
CY CLE
Json Property
Ġcap acity
lo ok
æ İ
de t
Descriptor Proto
M MU
Ex tended
---------------------------------------------------------------- ------
å ĩ
ĠType Error
p icker
ĠSD K
sc ratch
& )
ps z
Ġto k
Ġix gbe
2 0000
SP D
ST OR
Ġa i
" %
S uper
STR I
atern ion
ĠC T
j peg
Byte Array
Ge o
Bu ffers
dis connect
Ġf ault
Ġt b
ĠP G
ĠB r
77 6
h ere
ient ation
ĠK ubernetes
p ers
Ġfl ash
comp ression
is k
Hel lo
Ġg ive
ĠĠĠĠĠĠĠĠĠĠĠĠĠĠĠĠĠĠĠĠĠĠĠĠĠĠĠĠĠĠĠĠĠĠĠĠĠĠĠĠĠĠĠĠĠĠĠĠĠĠĠĠĠĠĠĠĠĠĠĠĠĠĠĠ ĠĠĠĠĠĠĠĠĠĠ
tr ampoline
Ġs imp
Ġiter ation
char set
he mas
bl ack
x dr
ç Ľ
Ġadd ing
pth read
Ġlist s
ĠS L
Ob server
S ome
Ġw alk
ĠCal led
ri ent
pc b
On ce
Ġ8 4
Channel s
g re
Ġ" *
Ġtask s
E BUSY
Un der
ĠA fter
ĠSpec ifies
SI VE
Part ial
P erson
define Property
sa mpl
15 3
Ġ --------------------------------
ĠW hether
&& "
Ġgo ing
asc ript
ĠX ml
PAR SE
ĠC D
> *
Ġ< >
ĠP E
ĠR GB
ĠA LL
EXTEN SION
IO D
g uest
ĠPar am
ĠRe mote
Annot ations
UP LOAD
is er
Ġread s
Run ning
dim s
è¡ ¨
Ġh andlers
S core
Ġf rag
Default s
Ch an
Ġ utils
st andard
Ġs izes
constant s
ĠRe port
Ġ200 2
ach able
Can vas
Ã Ń
Ġper formed
ĠE P
PRE C
zM zM
Ġc info
Ġ' ../../
ĠE ns
Ġdo ing
Ġb at
Ġdiv ide
LE xception
d type
ĠD SP
Ġco ord
Gl yph
Ġv tk
88 8
MA KE
f lex
Ġin sn
ĠS im
ĠRe quired
Get Value
in ate
Ġprevious ly
ializ ing
' ",
Ġun lock
Ġdev elo
mod ified
ĠN L
REC ORD
rib er
p ment
INS ERT
Ġadd s
Ġrot ation
ob ile
DeepCopy Into
ID GE
vert ices
C SI
par er
AS F
Ñ Į
Ġĉĉĉĉĉĉ Ġ
ĠIn struction
ĠAct ive
Ġg c
Time s
wake up
æ Ķ
18 2
ĠC MU
Ġm ux
ffff f
M Y
- %
cl usion
? ;
q h
ĠPack age
Ġ8 8
M Hz
m ysql
x AB
IM X
Ġm ixed
Is Null
M ultip
ong o
xB F
Vis ibility
S o
S ink
Ġint r
36 5
Ġwork er
Ġf urther
cept or
b fd
Ġ5 8
Ġi i
Pred icate
task s
DI AG
37 5
t ics
Ġm icro
ER E
OT HER
ĠI C
DE T
M ultiple
r ssi
03 3
Ġport s
FL T
ĠW ord
riter ion
mater ial
tx q
ĠEE PROM
xy z
oper and
åŃ Ĺ
PLAT FORM
ĠP T
Ġmm SDMA
201 4
En dian
Ġh ard
m av
ĠT F
ĠR OM
Ġt v
par m
AN G
Ġi v
Ġn la
Ġde ser
dic ates
Ġ7 5
UR ATION
Ġindic ating
Col s
r ss
Type Name
Ġlevel s
Ġreg istry
ĠCM SIS
xA E
Ġb rc
VE CT
s anit
l ated
ĠS ync
NE G
Ġp ick
pi res
H dr
Ġp te
Ġsu ffix
xabab abab
l on
gener al
M ix
Ġco ordinate
y e
Ġ' :
ĠGener ated
Ġvar ious
ĠDE VICE
ĠLo op
Ġ escape
ĠF S
tun nel
ge o
P at
Top ic
55 0
k ubernetes
cl r
a emon
T yped
P X
as n
ĠL V
CH G
RT S
Un supported
Work flow
ĠFunction s
Operation Exception
01 3
Ġp at
ĠR andom
Per missions
RE PORT
cur ve
et her
ĠC ounter
' d
, .
N IC
Z ip
ç½ ®
ĠIn clude
Un its
Ġ200 4
Se g
olar ity
" ];
B UR
: ])
ĠTime out
ĠShift ed
co ur
Ġt id
output s
(" _
Symbol s
ĠM M
Ġt aken
Ġme asure
iz z
Ġres olution
Un ix
30 8
w all
INCLU DED
b on
ĠH DMI
Ġr ather
S ENSOR
C atalog
ĠAUTH OR
ĠI TM
ĠF B
ĠF E
uct ion
Rel ative
ĠA SF
en g
ĠM UX
Ġ Ã
80 6
X l
ĠV OID
ail ability
map h
P ULL
Data Source
ĠP RE
HE IGHT
' ve
t sc
And roid
Ġst uff
Ġf a
ĠBA SE
Ġinter faces
Ġs ur
Ġsc ratch
} {
ĠE mpty
c he
ĠMem ber
Ġfull y
Ġs al
se quent
25 3
Ġa ffect
Ġlo ader
i h
u delay
UM N
is l
80 4
F RO
ĠL td
der ef
Part icle
um an
[] {
Ġleg acy
s dev
OD M
cla im
Ġf illed
ĠIn fo
su ite
i u
s li
_ *
Get ter
xF B
Ġip v
X V
ĠĠĠĠĠĠĠĠĠĠĠĠĠĠĠĠĠĠĠĠĠĠĠĠĠĠĠĠĠĠĠĠ ĠĠĠĠĠĠĠĠĠĠĠĠĠĠĠĠĠĠĠĠĠĠĠĠĠĠĠĠĠĠ
Ġbel ong
80 3
ĠF IELD
Ġprom ise
Ġ(* (
is a
Ġh idden
25 2
30 9
ä¸ ª
ĠM MC
Ġde t
89 95
Ex change
Ġio ctl
Conn ector
ĠImp ort
Ġre pository
Ġad min
ant s
Frame s
Ġexplicit ly
In former
re name
æ ŀ
Ġmode s
ĠL T
TI LE
cal led
PRO GRAM
6 000
a udit
AN GE
ĠP urpose
Ġfield Num
ar ound
SH UT
8 31
STR AP
ss h
Ġmlx sw
v si
Ġ{ -
Ġĉĉĉĉĉĉ ĠĠ
:: ~
velo pe
K B
ĠReg ion
ĠĠĠĠĠĠĠĠĠĠĠĠĠĠĠĠĠĠĠĠĠĠĠĠĠĠĠĠĠĠĠĠ ĠĠĠĠĠĠĠĠĠĠĠĠĠĠĠĠĠĠĠĠĠĠĠĠĠĠ
ET CH
MULTIC AST
Ġj iffies
E U
Ġs f
Ġgener ation
Ġcontain ed
get her
Ġstr conv
Ġ' \\
ST ALL
ĠRece ive
: ["
i ate
32 4
Ġcompat ible
R oll
ĠUnivers ity
ĠI SO
ig r
Up dated
000000 40
mo b
P lane
PP ER
Be havior
/ (
ĠAT TR
ĠG C
u dev
01 7
Î ¹
> ",
Ñ ĭ
Ġlock ed
COM PI
Ġproper ly
Ġm g
Ġs af
m ag
BI AS
(" ./
ĠE ng
ĠA li
T j
L IGHT
30 5
con tain
Ġ1 23
Ġp res
80 5
ens ity
Ġlo st
P ages
f ib
03 03
Arch ive
has OwnProperty
AP IC
FIL ENAME
: ],
char At
40 5
Sample s
High light
Ġge ometry
lectron ics
om ial
set Text
me try
ĠPer ipheral
Lock ed
d printk
COMP ARE
GNU C
GL M
V oid
lay ers
app s
ĠU VD
ĠY Y
Power Shell
Im Gui
AR P
t gt
Ph ysical
Ġd d
22 1
s ender
Ġdig est
C ERT
m idi
Variable s
c w
FRA G
resource GroupName
ĠB ool
P e
24 3
Pre view
Ġh ad
Ġim x
p alette
ĠCal culate
RU LE
z m
Reg istration
ĠĠĠĠĠĠĠĠĠĠĠĠĠĠĠĠĠĠĠĠĠĠĠĠĠĠĠĠĠĠĠĠ ĠĠĠĠĠĠĠĠĠĠĠĠĠĠĠĠĠĠĠĠĠĠĠĠĠĠĠĠĠ
Ġb f
Ġdr ivers
26 0
ĠTe chno
26 5
Ġl arger
C ookie
Action Type
ĠU P
09 0
Ġ" @
top ic
Ġ3 00
in crement
HE L
fr m
dat etime
sp lice
Lin q
7 54
(' #
nd o
Ġcert ain
stream s
AT ER
Ġcre dentials
scal er
SA VE
Ġb b
Ġ1 04
ircu it
CC K
ioc b
te am
Max imum
64 0
ĠTe mplate
E r
C ulture
PL US
Y ou
Ġser vices
x CF
gl yph
Ġc le
Ġsh are
U i
Ġsv n
Ġh id
ar s
ĠB inary
IZ ED
P o
angle s
ĠF UN
==== ===
w ill
E AR
x or
Over lay
RG BA
ĠJ ob
] -
2 15
US AGE
ĠD ictionary
ĠX FS
ay s
COMP ONENT
add to
Ġp ins
a W
à ´
01 8
Ġse ctor
Ġext end
ĠCon d
E CH
s ense
Pr inter
EV T
A mazon
åĽ ŀ
Col ors
Ġsub scription
b undle
B RO
B g
SLA VE
M ore
w pa
EXCE PT
ĠK VM
å ½
Ġc ross
à ª
C apt
en et
v fs
Ġ< !--
over lay
S AS
] /
we ights
H it
Stat es
M o
ĠL ow
RE AL
Ġth ings
Ġle af
T ermin
HAN DL
40 7
Access Type
ens ors
help ers
å® ļ
ĠSc hema
Ġf act
Ġmm CP
cr a
Ġ ata
is Valid
ĠFor ce
Ġ0 1
ĠO pt
end ian
ĠP op
25 9
Ġcol ors
so ap
Ġ ig
Ab ort
Ġle ave
ĠĠĠĠĠĠĠĠĠĠĠĠĠĠĠĠĠĠĠĠĠĠĠĠĠĠĠĠĠĠĠĠĠĠĠĠĠĠĠĠĠĠĠĠĠĠĠĠĠĠĠĠĠĠĠĠĠĠĠĠĠĠĠĠ ĠĠĠĠĠĠĠĠ
Ġis set
f name
F ire
AB I
` )
qu ences
node Name
ĠW rit
ĠVAL UE
Thread ing
ss id
Stack Trace
el s
put s
RESPON SE
P olygon
re maining
PRINT F
co ex
f use
RE ST
50 6
Or iginal
ĠG R
reg round
.* ]]
Ġp ol
Ġl a
ol ation
1 0000000
PRO BE
Ġ_ .
ĠEn v
Sm all
th rough
r dma
Ġo thers
ĠS ession
Ġback up
54 54
æ Ń
ĠM SR
Log ical
Wh ite
26 6
ãģ ®
/ #
T ip
ĠA TA
go od
Ġed ges
ĠD ynamic
Ġid s
C DC
Ġ`, `,
Cache d
d nx
ĠST ATE
ĠA UD
ac cel
ENO ENT
M SR
request s
Ġwork ing
ĠR TL
Ġ ENABLE
I llegal
ĠPro duct
OP CODE
Ġs oft
ef x
v ref
ĠAD D
Ġact ivity
is r
Down load
Ġformat s
Ġ Â
9 06
24 00
D UP
K m
W O
Ġb rowser
ĠDeepCopy Into
Ġm arshal
e ch
Ġmm c
ĠQ U
ĠPl ace
Ġun ix
cnt l
ĠF PU
Test ing
i sed
ĠW HERE
Ġrel ation
*/ )
z A
(" {
xB B
Ġadd ition
Ġkey word
include s
re po
Ġb g
ĠDef initions
x mm
Ġ1 0000
U GO
PRE F
C x
sock opt
Ġcom ments
Ġspec ification
vent ion
PH ASE
ĠS R
Ġc arry
Event Handler
In tent
TRI ES
TL B
Ġin herit
u C
IG NORE
Ġan imation
X fer
ĠO FF
17 2
mac ro
Pl us
Ġh istory
Ġq emu
Ġrout ines
Ġa apt
tern ative
Ġdig its
im x
ĠC E
sy ntax
Ġf ocus
NE ED
With out
Ġg cc
PRO DU
Version s
C losed
Ref lection
ib m
Ġcon v
r adeon
bp f
IP v
ĠQ IB
opa que
Table s
ide s
ĠT A
u B
Ġ8 5
ad a
Ġsymbol s
ST Y
( |
Ġcomp ressed
32 1
xE F
Ġskip py
Ġto uch
msemseQ Bzmsemse
Ġw p
Off ice
E OP
Ġc ipher
Ġr anges
match er
Ġpair s
" ])
Ġ* >(
buf s
graph ic
V n
state ment
fix up
T URE
Log ging
C b
re pository
her ent
2 18
Ġnum eric
ĠSet tings
Ġvert ices
Ġconsider ed
04 4
cond itions
é Ļ
hid l
Ġp ast
ID R
Ġse l
16 1
ĠEns ure
Ġr atio
L ex
db c
^ \
Bl end
rmt oll
Ġass ignment
ĠS ort
ĠL ook
MAT RIX
Ġuser name
Command s
B TC
ro zen
RO C
FE AT
Ġs ources
Ġproto reflect
Ġp thread
host name
Ġdr ive
g og
Ġproto wire
rout er
D ER
Ġcur ve
PA RENT
Info s
d ll
AS IC
HI ER
Ġc ar
ĠInit ial
ĠP D
ĠO PT
ansp arent
PER IOD
Record s
tr ip
PR S
ĠTE GRA
addto group
M anaged
Ġthe me
yn os
MIN OR
ict ure
] {
xA F
AR C
s ur
ff s
33 0
iv ated
ib ly
Ġf h
fo ot
s izes
ss ize
ĠSh ow
ag ation
000 5
Ġqu ot
M UT
ĠSUN XI
Ġprob ably
PE ER
get Property
ER ENCE
n at
ALI AS
dim ension
en coded
Ġc red
not ification
Ġ' +
File Path
A nt
MA IL
ĠGr id
Opt im
xB E
= /
Ġre v
22 8
> ',
Ã ¤
ĠC SR
d vb
ĠP olicy
âĶĢâĶĢ âĶĢâĶĢ
ĠA TOM
PA IR
OF DM
h andlers
ĠAt omic
Pro totype
der ive
Rece iver
S ur
counter s
u A
d pm
ME T
mp s
De ad
Ġdetermin istic
TH ROW
Ġsimp ly
000000 80
Ġv c
ĠS ample
; "
Ġexact ly
Z IP
Ex cel
Ġevery thing
26 2
34 5
46 000
check sum
T EX
Ġex clude
rel ated
pen ded
ĠAp ply
ie ce
Tr im
Y W
Ġr w
Ġlink ed
17 1
Ġper cent
cal er
c losed
Ġl ang
BRE AK
4 29
ä¸ Ń
C y
H L
Group Version
le e
List eners
WH ILE
Ġ1 92
NV IC
à ¥
ĠCR YPTO
MA PPING
Ġb s
List Options
Ġstr ip
Ġcontrol s
ĠI MX
Ġre duce
B and
met ic
Ġer ase
Ġb io
m ing
40 3
PI F
NO TIFY
Ġmet av
ll x
ĠH andler
ĠTr ace
Stat istics
ĠD ig
Ġwindow s
en ant
Lif ecycle
Has Been
Discard Unknown
IP SR
place ment
ĠTrans mit
ĠH ID
Ġear ly
Ġsov Generated
Ġmap s
u er
Ġp kg
reg isters
ĠPro perties
Ġin stanti
Ġs core
ree mpt
Code s
Ġm ajor
POS ITION
EV P
ĠCH AR
Ġt ls
el astic
i pt
Ġg p
4 20
al go
get Default
æĸ ĩ
Ġst m
SC A
32 6
d inal
y m
ag er
ĠA zure
troll ers
PA USE
ĠDe cl
ĠI W
Ġu uid
LI BC
Ġexception s
sh ost
ĠSe lection
ai ro
R TR
ĠN OR
Dig est
Ġag ent
Exp and
B ank
Ġ6 2
ĠF ill
Ġ2 13
'] ],
Ġun marshal
prom ise
R anges
T BL
At omic
CM U
ĠDe velo
wh at
cn ic
ĠI DE
mp loy
P AL
pixel s
Ġconf lict
aaaaaaaaaaaaaaaa aaaaaaaaaaaaaaaa
p itch
ĠN ormal
ĠIO RESOURCE
Def ined
pro x
Ġd l
fin ite
Ġ__ ____
Var s
angu ages
WR AP
ĠMSG PACK
F req
Value Of
Gr adient
RS SI
bt ree
Ġ7 6
get Key
box es
cop es
common s
p Data
N N
" ][
PAT CH
et ween
irq s
RE N
mask ed
Ġmatch er
ĥ ½
ĠL PC
O MAP
S olver
Sh are
++ );
Cre dential
ext ended
Ġlink s
AS R
[] []
Ġser ialize
sy nchron
dr ain
Ġm r
ĠF ull
40 9
Ġb undle
St amp
dig it
ĠĠĠĠĠĠĠĠĠĠĠĠĠĠĠĠĠĠĠĠĠĠĠĠĠĠĠĠĠĠĠĠ ĠĠĠĠĠĠĠĠĠĠĠĠĠĠĠĠĠĠĠĠĠĠĠĠĠĠĠĠ
ĠDe code
Ġident ify
Cmd lets
De cor
Ġdr ag
ĠT ABLE
201 2
x en
IC ON
No Error
B alancer
rr or
}} },
be at
is or
sort ed
Ex press
abc de
rie ve
ĠG LE
AS SIGN
de ad
e mpl
Ġin coming
t n
re map
ĠF ail
maph ore
RO UT
Ġpl us
Res olve
g amma
normal ized
ä ¹
call s
Ġdesc riptors
ĠIN IT
AAAAAAAA AAAAAAAA
Ġ6 55
Ġref resh
IR UGO
Ġ' =
p Ad
chan ism
PAT TERN
gr ad
c ross
Ne ed
AL EN
Ġst ub
Ġas ynchronous
Ø ª
($ _
Util ities
Ġf un
50 5
Ġhig her
55 5
INT F
De precated
F requency
nc mp
R STR
h ardware
red irect
W U
tribut ors
MM IO
ĠB ody
Ġin dividual
Ġon es
ĠI BM
Ġin c
Î ¿
qu ad
Q String
klmnop qrst
AL R
ĠRA DEON
Ġresult ing
(' \
ll u
OPTION S
string ify
G ID
AL E
lp fc
TA GE
OW ER
K nown
subsc ribe
lf w
al ignment
AG AIN
ĠG PU
Q Q
j ax
64 7
Ġle d
an im
ĠZ end
Custom er
Ġ2 021
5 100
Ġannot ation
re interpret
J s
Ġstat istics
l ass
PH RD
M ag
ith metic
Ġ(! $
Enc ryption
ch at
oun ded
ann ing
ĠSI ZE
CR YP
delay ed
Sc heduler
EE PROM
M ed
ing leton
64 6
ĠFUN CTION
Ġ) (
our se
C over
to o
ĠAR G
er able
ĠF ailed
= $
Ġf our
Load ing
soft c
STY LE
AVAIL ABLE
SE CUR
æį ®
Ġ6 1
DY NAMIC
Ġ7 4
handle d
Request Id
Ġp name
Ġdown load
Ġq p
Ġso ap
Hook s
. <
Ġse em
Ġj dk
n od
um i
Ġrepl aced
M PEG
_ {
X L
> ";
Public Key
pre p
Ï Ħ
ç §
Ġl ittle
m tx
th d
Ġar bit
w iki
Ġ ë
Ġ[ {
us ic
P oll
" }},
AC Y
Ġch art
ĠM o
ĠReg Exp
sv d
lev ant
ĠF in
coord s
ĠC TRL
SC ALL
Ġapplic ations
ex clude
ref count
4 0000
50 7
e o
spec ified
Ġl ik
ĠV F
sn ap
lo de
PA Y
Ġ9 5
Rect angle
w il
ams ung
Ġ* **
Ġi oc
ild card
Ġdif ference
27 0
BUR ST
se cs
< \
================================================================================================================================ ================================================================================================================================
sr v
ĠTrans form
O rient
O U
m peg
37 4
Ġp v
Ġ////////////////////////////////////////////////////////////////////////// ////
Ġ@ @
Ġst a
pro j
F ore
25 7
00 11
] "
Abs olute
ĠB utton
Ġt ell
ed ges
ĠSte p
h it
Py Object
36 8
RAD IO
AI a
EN GINE
H idden
variable s
AB C
CON TA
temp t
02 2
Ġ1 44
Lo aded
MAR Y
Ġf ar
ĠB o
as ci
ĠValue Error
ĠF A
Ġ' ')
TR ACK
40 8
Ġ1 07
* );
Ġi a
ĠF M
Key word
i B
HANDL ER
ST AND
ç ī
MI SS
å ¾
HasBeen Set
re ction
Ch at
åı ¯
ire nt
') ->
st p
As sembly
MO UNT
Ġw eek
Ġequal s
H ARD
Ġ= ============================================================================
nowled ge
g f
Trans lation
Ġtrans lation
SECUR ITY
18 1
Ġrc u
wh ite
ĠĠĠĠĠĠĠĠĠĠĠĠĠĠĠĠĠĠĠĠĠĠĠĠĠĠĠĠĠĠĠĠĠĠĠĠĠĠĠĠĠĠĠĠĠĠĠĠĠĠĠĠĠĠĠĠĠĠĠĠĠĠĠĠ ĠĠĠĠĠĠĠ
it ter
open ssl
un link
00000000 0
Ġ1 10
5555 5555
DE TECT
ser de
æ Į
59 7
*) &
P EN
sc b
mat ched
Ġvol tage
step s
Col lision
ĠT ypes
rece ived
Ġ[ ])
Ġm agic
er ay
E val
Ġo verr
ĠA Z
Ġg uest
BL UE
x DB
pl ier
f ld
! ("
Ġp dev
and atory
L ister
RE NDER
SP LIT
ĠM e
? \
ren a
ĠEd itor
ĠCon sole
Ġhash Code
Cl k
S ent
LV L
list en
Re store
ĠT SC
SK IP
ĠĠĠĠĠĠĠĠĠĠĠĠĠĠĠĠĠĠĠĠĠĠĠĠĠĠĠĠĠĠĠĠ ĠĠĠĠĠĠĠĠĠĠĠĠĠĠĠĠĠĠĠĠĠĠĠĠĠĠĠĠĠĠĠ
Ġres olved
ĠencodeVarint Generated
ĠP attern
Ġvector s
Prev ious
01 9
Ġj ump
Pl ain
V i
Ġre vision
ĠN ID
on line
AA A
p Bt
Ġwr apped
abcdefghij klmnopqrst
hedul ing
hook s
pop r
Spec ial
get C
Is Valid
0000 0200
SEQU ENCE
ar ily
Ġ1 08
ĠF ont
Ġsn printf
Util ity
j ango
b fin
Ġr q
Ġd uplicate
it r
88 5
ĠStruct ure
Ġis csi
CT E
Ġch oose
m ips
j ac
PL AN
q r
Ġpro tection
ic mp
F x
28 8
scal ed
Ġget ting
: #
Mac ro
ĠB ox
H J
Ġm anaged
Ġg oog
Ġg ain
6 02
s ink
32 5
A sc
EXT ICR
ĠNO UPLOAD
amd gpu
ĠBlock ly
ĠAd v
Û Į
SE COND
24 1
get Data
I ZE
(! (
xB D
Ġg s
Ġsh ader
are st
b pp
ph ere
MB EDTLS
>> >
dr am
201 1
Ġan chor
ĠChar acter
LO OK
w i
Part s
Ġdescrib ed
f cp
In crement
Ġ***************************************************************************** *
P AS
Ġto gether
Ġv id
Co lour
Ġt cg
NO F
Ġv o
l rd
Ġu b
ac quire
(( __
32 9
CH AIN
w ide
x BA
Ġf ire
ĠM ore
Ġa f
) ==
pin ctrl
ĠGL X
get Parent
With Error
O cc
Ġs vc
ĠW LAN
Re po
S CLK
Ġh ton
Ġst ores
LE AR
Res ize
Ġsc ene
io addr
k obj
t ic
Ġres ume
aj ax
Ass ignment
Ġ ur
p mlme
Suppress Warnings
Ġev t
OL L
Ġul ong
Ñ ĸ
Message Info
P V
rot ation
Ġse en
style s
Ġde pending
w g
Ġ' ]
ĠM UL
j oint
ĠEx it
) })
Mod ify
es p
Output s
x ED
Des ign
E PF
ĠMO DE
be acon
ĠW in
get Element
ĠM Hz
ç ±
Ġvert ical
Ġre ject
Ex ecut
m nt
Ġ" ../../
high light
Ġ1 03
m ultiple
Ġal ter
R SP
H i
Y es
ed Exception
Ġ4 00
ig rate
Ġpre dicate
ĠL et
ĠCl uster
exist ing
Ġr gb
CE L
AB S
L PC
4 80
n or
Wh ere
Comp act
n h
S CL
TX D
PK CS
F ONT
md io
Ġp aint
E st
2 80
pe ek
)) ]
Ġf reed
Ġm x
Ġpoll ing
xff e
Ġc apt
à º
Ġ1 22
å ·
ĠD erived
Î µ
ĠD irect
0001 0000
Ġdir ty
ann ed
SP ORT
in ject
Ġf ew
Ġp oss
ĠS M
DR C
; ",
con sumer
Ġcan vas
E qu
RE CTION
FW D
ĠM icro
un iform
m aybe
ĠSh ared
i ow
mem cmp
Ġcl ang
k o
}} }}
Ġs ound
Ġtr acing
Ġf old
OPER ATION
r port
88 59
Ġconnection s
* \
01 5
ĠSc ript
Xl shut
Author ization
ALIGN ED
d B
29 5
F PU
Ġtr im
ĠR AM
Ðµ Ð½
( ("
cm nd
Ġst roke
File System
C ED
get Text
K it
at ar
TA MP
f atal
ad apt
ic a
Te am
(( ((
Ġbr idge
Ġd ie
ĠReg isters
Content Type
END POINT
scal ing
ĠCon s
g z
RX D
åĢ ¼
Ġ{{ {
T CC
Ġwarning s
est ing
Ġle ading
ĠS up
Re ferences
12 00
ĠUn supported
rott le
R aise
ĠD H
F k
99 6
200 8
ĠCre ated
ĠP et
Ġblock Size
project s
Ġchar s
Ġseg ments
ĠSt reet
VI SION
in struction
y es
H ome
Qu ick
h v
cons ume
S prite
17 590
fr a
Ġd n
Ġwatch dog
Ġle x
havi our
Ġw char
Ġfollow s
p al
DR AW
Ġre peated
Ġ19 058
K ILL
oc ations
Ġac ross
Det ect
Ġ` ``
Ġu c
ĠI PT
i ator
k p
Ġm l
Co exist
Ġr tc
P IC
ĠS CR
U id
z h
QU OT
28 6
as set
ADAP TER
æ ±
Ġchar set
Ġs ense
pr ice
ĠN FS
W ARD
Ġbu ff
ens ure
I mm
Ġk v
Ġver bose
>> >>
è ´
Ġth ough
av id
log ic
Al location
Init ialized
STRI CT
:: {
Ġ! !
res olved
CUR SOR
CR T
Un ion
ep och
lic a
77 7
Vert ical
F RE
AD J
De vices
Ġc ss
U sing
03 8
port al
Ġ199 9
D f
N v
gog o
an imation
comm ended
26 9
P NG
w k
Ñģ ÑĤ
ĠCH IP
hash Code
ĠM II
33 9
Con struct
1 00000
C pu
h ib
åĲ į
ĠV AR
l ive
re ject
ĠB U
000 6
erm ine
yn omial
Ġsh a
mov ing
B K
insert ion
B X
DC P
op ens
BIN ARY
Ġĉĉĉĉĉĉĉĉ ĉĉ
Buffer Size
abs olute
UB LAS
Ġm td
Ġg fp
te ch
ear ly
Out Of
C AR
40 2
z d
on der
Ġj adx
neg ative
p key
sp ot
',' ','
Ġce ph
Ġro om
Ġbl ue
ĠF ast
35 7
S to
lis her
d ating
location Name
27 4
ĠF SMC
Ġ1 12
ĠST B
Ġrefer enced
ĠP OWER
Ġ9 2
ĠB LOCK
Scal ing
Ġmay be
è¯ ·
ĠSe quence
K A
hw fn
Ġ UL
pol ation
Print ln
SQ R
name of
PU BLIC
Ġ= ========
ĠGo String
pa int
exp licit
ab a
Ġcome di
ĠHel per
ĠL OC
ĠAnd roid
Ġk malloc
ad ded
) };
ĠD W
ip i
Min imum
35 9
Fix ture
q i
33 6
H andlers
Ġ ice
Ġwe ights
Ġl d
b v
Ġsp in
Ġchain ing
Ġe e
S CO
w est
Ġf m
q d
t ol
77 0
Le af
ca iro
Ġh ot
Ġstr ategy
Ġq la
= */
\" \
ere g
s data
erc ial
o e
ut ter
pr ing
Ġun icode
ĠIm Vec
Ġap plies
A x
k c
Ġe ps
RAN CH
Ġpos itions
\ .
36 6
T oo
clk r
ĠF r
Ġ% {{
mf ony
è ¦
ĠFL AC
88 88
Start ed
Ġ1 05
ĠD IV
dd c
89 6
cd c
Ġil legal
b as
IN SN
ĠC ard
){ "
( ?
Ġstep s
E G
PERF COUNTER
Ġexp onent
Ø ¯
Ġin flate
Ġpl ain
ĠH OST
ff t
get Current
os en
P AN
acc um
M LE
asci i
UN IF
st bi
TIO CM
Process ing
V elocity
WAKE UP
Ġc am
ĠLP TIM
Ġs low
PREC ATED
l arge
ĠUn known
Callback s
ĠLL C
parse Int
m w
Ñ ĩ
Ġcle ared
ATE G
Ġf i
Ġsh utdown
xa aaaa
INCLU DE
rot ate
ĠE M
é ¡
g ht
graph ics
SD IO
Ent ities
p du
ĠC URL
EXT ER
Debug ger
= _
ĠD L
COMP RES
ĠS ocket
ne on
min us
h over
RE EN
po ses
In dic
ĠCOPY ING
ç± »
MOD ER
RE MOVE
L aunch
ific ant
ĠD IF
ful Set
Ø§ ÙĦ
Ġre peat
z oom
m is
Ġa sc
Ġproto impl
g adget
v addr
SW IG
us hed
allen ge
po ss
Ġas set
Num eric
ĠST ART
co e
ĠI gnore
J PEG
Ġĉĉĉĉĉĉ ĠĠĠ
Ġchunk s
TR AP
Ġorder ed
re loc
register ed
L ess
2 19
ĠP RI
cal culate
Ġsmall er
m ib
Modified Write
ail s
P ull
OVER FLOW
GG n
ĠSet ting
j et
ht able
ci a
: /
Read ActionType
ModifiedWrite ValueType
Work space
Neg ative
desc r
H H
g pi
Ġre ached
e u
view s
ĠR ight
DA G
40 6
H SI
ĠD omain
Ex act
Ġup on
op acity
ĠD R
REM OTE
AP ID
TO S
ĠEx tract
Ġdef er
User Id
Ġr a
ĠUs age
j u
ĠS G
TX T
Ġh a
è¿ Ķ
ĠP lugin
gorith ms
IM S
02 8
un expected
v n
ĠD M
Ġ8 3
Ġfollow ed
800 2
Ġbus y
Connect ed
Ad just
Ġx t
N s
ĠTr ack
77 5
ĠEx ecute
sd io
OR B
x FA
Al t
57 6
Im ages
A rc
i or
37 3
ar ia
ĠH ead
D if
Last Error
Ġt im
Ġwe ak
(* (
__ .
M arshaller
pt p
GL B
pre vent
Ġsm ithy
~~~~~~~~ ~~~~~~~~
OT AL
Ġ<< =
Ġc d
ĠS S
ĠT EXT
0000 0400
RES OL
Ġnormal ize
h our
ĠLay er
mb x
a el
ACT IV
valid ator
Ġ/**************************************************************************** ***
tool tip
g rees
X B
ãĢ ģ
MB O
} :
ĠS ty
44 6
ig gers
åľ ¨
Ġ' $
in ct
X A
lis hed
hal t
cb i
FORM ATION
ĠBE GIN
FAT AL
Ġinsert ed
R FC
hw mgr
59 2
İ ·
ĠH R
ĠC SS
ãĥ ¼
H al
m ime
- (
Write Line
p DM
pro cessed
an ity
EXTER NAL
Ġconstraint s
a head
br a
ĠÐ ¿
Ġbet a
den ce
Ġdebug ging
Ġw s
g msemse
Ġdim ensions
dir name
ĠSu ite
l z
Ġp cm
******************************************************************************************************************************** ********************************************************************************************************************************
Ġpack ed
ust ers
us pended
IO M
Ġcycle s
R K
Ġcancell ationToken
Ġh orizontal
AR ITY
ĠCheck s
Ġfall back
adv ance
Ġg f
Ġclient s
Gener al
N orm
Ġ1 11
SA MPL
p erson
Def initions
w mi
Ġi mm
MG MT
Ġcol lect
s To
æ Ģ
0000 1000
R ank
s clk
b dev
WAY S
NOT SUPP
Ġw ide
Ġl i
mult icast
CR IT
ĠA g
New Error
n es
Ġ//=== ----------------------------------------------------------------------
, __
ĠEnd point
ĠTe am
ch anges
Ġg tk
ev en
Ġwh o
Unt il
S ibling
cmd s
umb n
C AC
ĠAc count
sk y
query Selector
Ġrender er
7 29
ĠF AIL
SE ARCH
è §
RC V
BL ANK
] ||
Request ed
m irror
NO EXCEPT
man agement
Ġun set
Ġre cent
M UTE
S leep
h and
ail er
er os
To ggle
Ġ//===---------------------------------------------------------------------- ===//
g cc
ĠM ETH
ĠV P
ĠO DM
ĠR B
ke leton
n io
ĠD atabase
/ ,
info s
View port
v ation
Ġ} ).
plt Callback
64 8
Ġelse if
el low
Ġd g
Fin der
M ENU
Ġsystem s
ĠB ut
C ycle
AR PHRD
FS DM
ĠT uple
02 6
P ause
Ġformat ter
VOL TAGE
aver se
QU FD
F AM
F ALL
Ġ// ============================================================================
MAR TC
ĠThrow able
Pre c
Col lect
à ¹
Ġh aving
ĠF MC
ĠPar ser
Ġcl ause
Ġ', /**/'
ĠLoc ation
b roadcast
Inv ocation
} </
file Name
ĠA pi
Input s
Ġcomp ress
------------ ---
at able
A ff
Ġb i
{} {
04 5
Full Name
mb olic
Ġtr ailing
Ġp otent
amp a
Ġv endor
l sb
Ġ8 7
CON S
300 8
P alette
ĠArray s
ast e
ĠO C
G OT
Ġc out
Ġ\" %
Un ary
ĠOpen SSL
ip es
unc vref
ENT S
Ġ1 15
è¡ Į
D SI
ĠA SCII
oc ab
bt t
Ġpr imitive
widget s
Qu ota
Meta Data
J o
Ġh and
le metry
28 7
> ';
Ġresp ons
34 6
Ġterm inal
37 6
å İ
Ġ//---------------------------------------------------------------- --------------
Ġar c
id r
EE K
V endor
Ġt ex
om ation
M u
Ġper m
FRO G
n y
Ã ³
de legate
H EX
ance led
Ġc tl
Ph one
SD K
sp tr
Ġll c
Ġ* ****
N r
w iphy
am ent
b k
ĠEd ge
X S
Ġlo ff
Ġup load
Ġp lat
Ġconn ector
Ġre ports
mod al
GENER AL
201 0
Ġg t
W IFI
J IT
Write String
q q
G MAC
S parse
Z a
D SS
re achable
bl end
27 9
target s
Ġ --------
r h
al ive
Ġi w
34 7
SIOCG IF
"}, "
LOC ATION
art es
local host
Base d
Ġtrans late
æ ³
MARTC ARD
Ã ¼
Ġhapp ens
D er
F s
n eeded
Ġrelease d
term inal
3 14
Ġv lan
pm c
ĠT W
td c
conf irm
empl ace
s ge
AT TACH
Z oom
Ġlo gin
R ing
RE CE
SI Z
Sign ing
d ocker
b z
ĠAdd s
ceed s
ĠC B
Link s
Ġ3 30
Spec ific
ĠIn formation
ĠZ ero
E scape
AR GE
ĠLay out
D en
t ake
ĠP CM
Ux GT
Ġ1 25
; ',
ĠP latform
D lg
Ġfile Descriptor
03 9
Ser ializable
Ġcomp iled
Ġa u
Ġ1 80
æ ģ
Ġdep ends
loc ations
ind ic
Ġp ow
State Exception
P SR
35 8
he alth
s par
oot er
Rout er
200 1
O ME
cell s
RD PCSTX
ĠV ideo
03 00
p q
ç Ĥ
pro viders
, \"
ĠSe q
BO OLEAN
Ġm aterial
IL Y
tensor flow
ĠRET URN
dig its
Cond itions
IN ER
Ar row
)? ;
åĪ °
ĠI IO
ĠB C
ç ¤
Ġc airo
ĠC ase
os h
ĠV ertex
M ul
] ):
is i
f ers
AN GLE
fs m
ĠID irect
S izes
COL UMN
ĠBe gin
use c
M irror
vert ical
eh icle
BY PASS
3 55
9 60
t u
j e
ab stract
var int
EVENT S
mi os
G PR
Ġ"\ "
it able
N ER
ĠJ ust
A H
6 59
me th
con version
ĠT AG
iz ard
S pell
ol ut
msg s
TO DO
c atalog
id ing
1 000000
remove Class
APP LE
Ġg ithub
ĠH ASH
st rength
ĠB L
A SIO
is ation
as io
D OT
" !=
coun try
è¿Ķ åĽŀ
ĠM ix
n ers
lock s
Î ½
i ot
one y
Ġtop ic
Ġh s
Cre ator
ad b
ĠA cc
d g
W EB
Ġse ver
Tex Coord
B ag
Ġdeclar ative
Ġr m
map per
Ġt iming
ur o
R m
ampa ign
56 0
BR IDGE
D TO
Ġs lots
N b
di e
Ġm tk
f ac
Log ic
Ġ( +)
ĠGLE W
Ġex c
Ġd yn
ĠPRO G
å ī
00000000 000
44 8
f re
UT IL
block ing
Sock len
lif eray
ĠIn v
Re v
f ops
Ġen s
Ġsum mary
ĠDet ermine
b mp
E FI
Ġth us
ĠL AT
o reground
dis card
g w
ĠB ad
in vert
ĠS B
ĠT RAN
per mission
ĠCon nect
à ²
out h
ĠUn ity
le w
ĠID s
ul umi
fin i
Ġinst alled
q a
I U
RE MAP
ig ure
ĠApp end
fer red
du ces
03 4
M g
V d
A w
S eek
re strict
27 8
Ph ys
ut er
ĠSTAT IC
ex c
FU SION
Gener ation
lat ency
re peated
met av
ertific ates
Report er
n fc
Ġtry ing
Help ers
Ġ8 2
cur l
56 9
C ipher
Ġf lex
': '
er ence
v v
ĠF low
i cted
ĠTh en
max imum
ql a
un recognized
Ġpan ic
on ed
Sh arp
é ¢
ĠD NS
ID I
UT C
vol ution
Ġe fx
am a
de cor
26 7
CLK SOURCE
ex act
ĠL eg
L ive
iv ative
ä ¾
ST P
35 2
A rena
11 00
ĠTr igger
EXT ERN
un ix
Ġmut able
Ġ= ================================================================
Ġs parse
pp c
} ).
J oint
ant ics
Ð° Ð½
ret ty
Ġ***************************************************************************** */
Ġend points
Ġadv ance
z a
ĠVER IFY
evalu ate
A ck
N FS
L UT
Ġ' *
LAY ER
O dm
ĠD S
66 0
DIP SETTING
Module s
P USH
m ay
Ġ1 02
ĠO WN
Ġ{ .
Ġ1 50
IC ATE
Ġd nx
Ġin f
ĠEx tended
SH R
13 07
Ġ* >
ĠS l
. */
ĠL eft
process ing
ĠSQL ITE
IC MP
0000000 3
gl Get
ĠRE QUI
Ġp data
ĠF unc
ĠE mit
0000 0800
L CK
re at
:: *
CU ST
ĠT otal
Draw able
ED C
33 4
SHUT DOWN
n api
AS ON
List Result
J q
Track ing
Ġ ].
CLE AN
Ġw arn
3 54
Ġmo ved
Ġm ysql
ĠF oo
/ "
ĠW atch
ED ITOR
M ov
ĠSh ort
Y UV
I MPLE
M FP
re pr
Dir ty
LP TIM
p ch
Al arm
ĠI o
Ġl imits
et y
ĠFor ward
msemseQ wmsemse
r aries
Pack ed
Ġ' __
for k
Ġd up
D aemon
201 3
Dispatch er
Ġcount s
64 9
TO O
D istribution
) _
33 7
EOP NOTSUPP
ĠĠĠĠĠĠĠĠĠĠĠĠĠĠĠĠĠĠĠĠĠĠĠĠĠĠĠĠĠĠĠĠĠĠĠĠĠĠĠĠĠĠĠĠĠĠĠĠĠĠĠĠĠĠĠĠĠĠĠĠĠĠĠĠ ĠĠĠ
callback s
str m
F USE
lap sed
avers al
lat er
ĠM IC
Ġ9 8
CONT IN
ĠConstant s
b ut
ore d
w er
arg est
Ġenc ryption
CAP TURE
Ad ded
CON V
d cb
Ġcomp let
AN A
ing ress
ĠS n
Ġgr pc
G FP
MI B
g est
ĠAs sembly
Ġdat etime
ĠP IX
lo s
TRAN SF
IMP ORT
Ġv cpu
F lat
:: <
200 7
Job s
p ur
28 5
á »
Sh ard
Web hook
Ġ} ));
d dr
art beat
05 2
Ġm aking
({ },
Ġto ggle
Se ed
Cap abilities
Ġdid n
CH R
Config ure
7 68
Out er
b alance
il ing
Al ready
s ources
b nx
Ġa udit
me ter
Sl ider
pBt Coexist
SI MPLE
Par cel
P icker
In f
Ġl ive
ĠE OF
pr ime
Th rows
29 6
custom er
== "
Ġp sz
Ġl s
n oc
J U
SUS PEND
write b
C PP
U MENT
list s
TER M
ĠD im
SH OW
Ġb w
ĠTh at
or al
Ġsat isf
unit test
fw d
ĠEng ine
g ap
In et
] },
Ġan aly
ĠUn safe
RO LL
ĠTrans action
Mod al
Ġc ent
ĠC Y
Key board
ĠExt ension
(" ",
2 77
Ġr k
B roadcast
ĠI mmutable
36 9
cs v
ĠV T
" };
env ironment
Ġlik ely
ch arge
IF S
Ġb ias
STOR AGE
3 40
ag g
N l
xcc cccc
ĠSu ccess
artes ian
vis or
ĠS DM
ĠA v
imp licit
Ġt l
seg ments
ĠR SA
h ist
play back
Ġ4 096
fin ished
Res olution
Ġtr unc
ĠZ C
Ġfunction ality
com ments
IZ ATION
4 40
BL END
IN F
ĠX K
ro ma
SUP ER
sh m
Ġ' /'
IS A
CO ORD
au ge
Ġblock ing
66 6
' }
tick s
ut ex
IM G
Ġcon tract
AD R
ĠObject s
Ġstop ped
ĠL M
Orient ation
ĠH C
å ¹
ener gy
v ia
Ġn umpy
ĠExport ed
Ġfile Name
Ġscal ing
Ġ' </
dev s
MIC RO
Ġsq rt
PAR ITY
x prt
iz ations
ĠO ff
Que st
C ar
Con cept
h ow
fr ac
Ġs uspend
ĠM ar
need s
Attr s
xffffff fe
Ġintegr al
Ġre size
up al
SCRIP T
ur er
Ġdr v
proto c
ĠLI ST
th ernet
Ġsub sc
Ġcon cat
In tr
m V
eric a
sect ors
t if
co herent
BO SE
ip ay
Ex tent
ĠStat ic
Type Of
st ers
In c
PAY LOAD
af ka
DE AD
Bu ff
MUT EX
Ġevalu ate
co uld
Replic a
ï¿½ï¿½ï¿½ï¿½ ï¿½ï¿½ï¿½ï¿½
Ġopen ed
S pe
en a
ĠPer form
TR UNC
Conf lict
G CM
ĠP AD
Ġr i
Event Type
S id
Ġint ern
38 7
in y
Ġ1 09
i io
j ump
3 44
sc heduler
ĠAl ways
AC R
Ġm iddle
200 4
quent ial
requ ires
hw mod
Offset s
UT ION
Un signed
el t
ĠP atch
:% .*]]
SW IER
" )))
s is
n u
S CHE
ic ip
ĠGraph ics
e lectronics
s mb
Vis it
te gra
im ap
D ID
= \
ĠPart ial
j d
26 8
Bound ing
Ã ¶
Ġstream s
CAN CEL
de crypt
Ġstr m
inherit doc
p ersistence
se parator
800 3
or er
Ġin crease
irc ular
Ġrepresent ed
ĠH P
r k
to ur
BIT MAP
EX TRA
ex e
Ġx en
Sign ed
cp s
Ġnormal ized
C rypto
Ġl atest
39 7
ĠN N
N ATIVE
27 5
cv t
DO G
Ġ( ++
string Len
Ġ{{ .*}}
SS ID
Rad io
Ġreport ed
thr ift
E MU
ĠQu ick
f ec
28 4
ĠS RC
mlx sw
P Q
Ġ queues
t vb
9 65
iss ues
ĠS ql
N IL
Ġp ag
Vert ices
SI MD
izz le
am ar
ĠQ ual
Ġp lot
cr yp
un aligned
ĠU NU
ĠF ix
de leted
, [
log s
Cap s
Ġde serialize
24 10
Ġm ag
Ġte am
S oft
S ources
D ash
æĪ Ĳ
Ġrun s
md p
ĠS MU
ĠSer ial
BO UND
ĠE lastic
periment al
ĠUNU SED
)) ),
37 9
N j
ĠUSB D
PUP DR
Ġa pr
access or
r um
as List
m h
fd t
uf act
03 1
pre view
Ġdis card
s hell
ĠN aN
Ġred irect
Ġsc atter
Ġint StringLen
87 6
34 8
Pro jection
XF ER
Ġa way
ĠOr iginal
ĠP H
ĠGL FW
ĠP AL
U uid
Col lector
ar ity
Ġtemp erature
Ġ8 1
Comp arison
FE C
get Time
TR ACT
MAL LOC
ke yp
54 7
re w
MM Y
ĠC ap
m os
Str ict
Man ifest
d fs
reg ions
ĠK ind
Field Element
ĠB IG
m clk
Map s
In sn
Ġh ome
ĠS PR
cour se
26 3
One of
29 8
L ike
ase d
Ġde coding
Ġ%[ [
U Y
DMA C
Ver bose
E igen
vis ibility
str ncmp
min imum
Ġsu ite
S AM
ĠN AND
0000 8000
Pre pare
sp u
P a
et ooth
cc b
Ġhold ing
L W
Ġfile system
P CLK
Ro om
Ġgl Get
83 50
w a
Ġcon sumer
Ġc url
T ail
Sc enario
o sed
y b
ĠA ut
Ġmis match
ĠF UNC
subscription Id
Ġbl ack
SMB US
C ut
Ġs olution
User name
Ġpro duce
ĠSign al
CH UNK
88 7
End points
log ies
ap r
v cc
ush ort
Ġfr action
)) }
ĠFe ature
sc ill
Project s
ĠProto Message
K o
3 12
A J
N M
ĠS MALL
t sk
Ġu size
Ġlimit ed
Volume Source
TI FF
Link ed
F un
j j
Ġde pendencies
32 2
ver b
place holder
e of
I ENT
ĠI MG
e on
sc i
ĠĠĠĠĠĠĠĠĠĠĠĠĠĠĠĠĠĠĠĠĠĠĠĠĠĠĠĠĠĠĠĠĠĠĠĠĠĠĠĠĠĠĠĠĠĠĠĠĠĠĠĠĠĠĠĠĠĠĠĠĠĠĠĠ ĠĠ
DI FF
# {
Term inal
addr s
Ġg b
ĠT IME
34 9
op le
S MALL
Ġ ]);
Cap ability
37 0
Ġindex es
BRO AD
ĠI SP
77 77
m ill
me the
87 1
Ġimplement ations
ĠIdent ifier
=-=- =-=-
66 7
ĠĠĠĠĠĠĠĠĠĠĠĠĠĠĠĠĠĠĠĠĠĠĠĠĠĠĠĠĠĠĠĠĠĠĠĠĠĠĠĠĠĠĠĠĠĠĠĠĠĠĠĠĠĠĠĠĠĠĠĠĠĠĠĠ Ġ
Ġn t
Ġlet ter
P SK
nt he
3 50
H SE
Ġloc ated
WINDO WS
ĠI OM
sup ply
IFI ED
U CH
Cal cul
")) .
55 9
PO SIX
T iming
r val
ĠD own
ex tr
Ġ"\ \
Ġframe work
Priv ile
Ġgener ates
and id
ĠE S
Br ush
Ġcounter s
methe us
Ġ& '
P SC
xE E
4 50
gr ay
' +
Ġrect angle
v ga
tr uncate
; </
Ġn bytes
c sum
pos al
C od
27 6
P OR
Ġstd out
ĠS iS
ç¤ º
G D
sg l
ĠCollection s
" !==
Y a
Inv ok
ĠDef ines
OV R
Q OS
çĤ ¹
Ġreg istration
iow rite
ĠU pd
cap ability
ĠM ADER
ĠMADER A
SH FT
invalid Params
Ġgu ard
t ap
Combo Box
w as
Ġcal c
le ting
Ġo v
ĠPro vide
ap se
Ġsc heduler
ĠEx pected
re covery
ĠA PB
E p
Emit ter
constraint s
ms leep
Ġp alette
ĠPER F
par allel
ĠP ush
ĠGL double
record s
Ġb ook
ĠNe ed
De leted
ä¿ ¡
İ· åıĸ
co ef
Su ch
U O
Ġth ing
Ġm ailbox
ĠC LOCK
ser ved
y x
Ġ2 40
ĠCl one
d ark
l azy
Ġtarget s
Ġdecl ared
9 89
load s
ret ch
ĠIn dicates
O SC
X D
mp u
å ±
exp onent
wifi ex
4 22
TR FS
Display Name
Ġlist en
æģ ¯
add EventListener
X C
Fin ish
ĠGL boolean
str to
read Only
S ensor
Ġst mt
39 5
PROG RESS
X H
ther mal
Ġ{} ",
Ġassert ion
88 21
con tract
SE MB
Ġsub sequent
Ġcomp ilation
Ð¾Ð ²
SC REEN
_ %
arg p
As String
6 10
av el
SEL F
Ġcol s
ED IT
Ġĉ ĠĠĠĠĠĠĠĠĠĠĠ
t ax
Fin ished
CTE ON
zer os
Ġre po
Run e
il on
q c
Ġde pendency
87 5
Ġshould n
Ġm oment
Ġx y
out il
ĠF ixed
Ġd h
str ategy
ĠMan agement
Ġal ert
En crypt
87 9
u char
fo ur
RE TRY
Ġe mbedded
Ġ[ `
Ġp ause
re nt
P MU
LOOK UP
A WS
L ambda
Te mplates
Ġiter ate
G LIBC
Un defined
SI L
Ġb asis
200 6
( ["
inherit Doc
ĠAlloc ator
ĠM ux
ĠB B
d pp
Ġs mb
Ġs hell
Type Error
27 1
n os
ĠSer ialize
ot or
Ù ĩ
f cs
- =
L inux
SCAL ER
r fc
B ER
ab uf
39 6
has Next
DL C
V GA
H over
jav ascript
Ġh v
C W
ll um
56 3
Throw able
2 99
Ġwork space
Sp acing
ĠW H
Dis p
cl p
06 0
me asure
( ;
get Context
HAL F
Pre parer
DL Y
P s
u ation
86 0
Ġis su
Ġr g
cb c
e ast
ĠM enu
Ġin vert
P an
ĠN ative
Return Type
N avigation
2 89
Ġmm MME
Reg s
0000 3
Ġ# ##
sys ctl
ĠDE V
Ġlog s
In ventory
ĠG UI
Ġv k
Exception s
Sh ip
PR T
DE FS
nb sp
C IR
3 11
Ġsub mit
SY SCALL
ST ICK
G I
Ġcalcul ated
en de
Loc ations
" ":
UN SUPPORTED
free ze
Ġ âĢ
ĠSe cond
Ġch oice
Par allel
ĠPIN MUX
á Ģ
Ġ== >
FA CT
A udit
Re act
Acc el
ĠM IPS
B ot
Pixel s
Ġfl ip
Add itional
Ġl ic
ĠT IFF
ĠP ipe
Ġh p
yp hs
PFN GL
Ġsepar ator
e qu
ĠB ar
fl t
03 5
read only
Ġr r
HEL PER
33 8
ĠWAR NING
SP C
Fl ash
AT I
BU CK
check box
oy stick
d id
04 9
APID JSON
LE CTION
è¦ ģ
str cpy
Ġreplace ment
lu id
Ġan im
p ick
Ġre cover
Ġtr aits
Ġ16 0
SS P
CON DS
84 7
F mt
f abric
Ġĉĉĉĉ Ċ
Ġh ci
84 8
SIB LE
sm u
P ref
b az
CI ES
Sm art
avig ator
M CO
Q R
ĠC TL
ĠI CE
S ampler
Ġp olygon
s ctp
ĠCon st
ĠArg uments
Ġpass ing
ĠR K
ph i
CRE DIT
ĠU UID
comple ted
re cover
Ġcon current
w char
CH AL
> >(
l port
TE CTION
al ed
} ()
56 8
F H
è ĥ½
f iler
Ġin et
258 40
Ed ges
FL G
Ġth ird
ĠDet ect
P olicies
To Array
h mac
56 6
Ġo paque
Iss ue
Ġsee k
pr im
Call s
Rep lication
Add resses
a ead
lo ut
SH AD
Ġinv ocations
get Int
Replic as
X PB
U VD
ĠNone T
Ġint ended
Re peat
(" ");
ĠD at
CUST OM
sd p
co mpl
ĠD SI
skip py
Ġ(( *
SN DRV
Ġsh r
Ġro ll
Ġh older
åĪ Ĩ
Ł ¥
E v
P res
E AGAIN
t abs
D ial
SUR F
View er
Ġb lank
KE EP
subsc riptions
ĠLAT IN
FL AC
Ġs impl
T w
Red irect
u dent
0000 2000
Ġde coded
alloc ation
T LE
MON ITOR
R SS
M ail
k n
q msemse
re ordered
Ġt y
ool s
res olver
è ¾
AV X
] ])
i am
Ġg reen
ub ble
Ġover lap
Index Of
IT LE
ll ib
Ġq h
Ï ģ
ĠR oot
ar f
Tool tip
ĠA CE
ĠT ri
xFF C
Next Token
get Node
( <
c rop
? [
TIME D
run e
Ġas n
Ð ¿
SP K
Ġ(( -
4 12
] ];
Ġtr ap
ĠS um
Ġex tr
Ġacces sed
b um
ĠOP TION
Thread s
set Property
inst ances
sess ment
mm ask
LINE AR
er ated
cl amp
REF ERENCE
ĠCLA SS
SE PAR
iz able
Tag Name
Ġ# ####
ĠM sg
Ġal i
Ġdig it
Ġdescrib es
ç ł
NO S
I r
Ġde cor
A SCII
}, {"
5 44
t orch
ĠText ure
umbn ail
Gu ard
ĠSO CK
Ġvm w
LP ENR
89 96
P ayment
file path
Ġ1 16
SER COM
th resh
Ġh y
Ġg z
con tr
Ġl ane
D PP
Co eff
b urst
ĠSQ LException
88 22
TU AL
P MC
ec ause
xffffff fd
xD F
L SE
av en
if d
Ġd iagnostic
Ġarbit rary
str dup
SI DE
section s
count s
D ao
& );
ĠST BI
stop ped
ffffff e
Ġas k
S at
AL U
Ġsp aces
0000 4000
0 32
e mp
7 67
|| !
Br idge
Ġun supported
duct ion
S SI
d sa
Export ed
RE ASON
vector s
Ġsever al
W LAN
s al
X DP
ĠM ay
c ms
z b
request ed
3 15
P ur
ic o
34 1
F ab
lic ate
ĠT P
opens ource
M j
link name
ĠSm all
è ½
andid ates
AD MIN
ĠL UA
G Y
icon s
start sWith
mploy ee
m ci
22 22
ĠOWN ER
Render ing
FAM ILY
SUPP LY
Ġc loud
ĠEnv ironment
8 37
V Ag
h at
Com ments
) (((
c amel
Cl aim
Ġs ends
Ġ0 000
Ġpre d
Re moved
ĠC LEAR
ĀĀĀĀĀĀĀĀĀĀĀĀĀĀĀĀ ĀĀĀĀĀĀĀĀĀĀĀĀĀĀĀĀ
U RES
Ġm ach
Ø ³
ah c
D ock
pr ise
Cons ume
start ed
Ġ7 1
> (),
Ġv ma
ĠĠĠĠ ĠĊ
to Array
ere o
mo val
no op
XX n
dis pose
86 9
Ġsh own
ist or
phys ical
v ha
K S
ĠSh ape
ĠAn not
Ġ( ~
Ġ1 14
RE NAME
ir y
Ġb n
Ġ__ _
Target s
Ġ______ _,
Ġl azy
ĠJ PEG
yy yy
ĠH Z
qu ota
29 0
CYCLE S
Ġs pe
ĠO bj
Ġ2 50
ĠC VMX
Ġn c
ĠR AD
Prop agation
in p
Ġus ually
Call er
de b
hal btc
: -
Ignore Case
Ġe as
3 64
} >
Ġse ss
M WARE
ĠE nc
chunk s
2 00000
Ġ> ,
T ID
ĠM eta
P lot
) */
g ee
CONNE CTION
IMPLE MENT
button s
me s
Day s
ç º
hs otg
AD ATA
á ŀ
P OP
AS SEMB
By Version
//////////////////////////////////////////////////////////////////////////////////////////////////////////////////////////////////////////////////////////////////////////////////////////////////////////////////////////////////////////////////////////////////////////////////////////////////////////////////////////////////////////////////////////////////////////////////////////////////////////////////////////////////////////////////////////////////////////////////////////////////////////////////////////////// ////////////////////////////////////////////////////////////////////////////////////////////////////////////////////////////////////////////////////////////////////////////////////////////////////////////////////////////////////////////////////////////////////////////////////////////////////////////////////////////////////////////////////////////////////////////////////////////////////////////////////////////////////////////////////////////////////////////////////////////////////////////////////////////////
B alance
serv ers
áĥ Ĳ
bar rier
V U
entic ated
R NG
RE VER
TH RO
29 4
PU B
ĠAl ternate
09 00
564 5
[: ,
ĠAc cept
y o
' m
TRANSF ER
Is Enabled
Ġi e
77 8
pk ts
Ġ0 0000000
ĠM erge
)* (
j ar
K V
Direct ive
O E
ĠDep rec
Ġre use
St roke
3 13
IN FORMATION
Ġun pack
Ġend ian
str icted
atter y
vision ing
02 7
Ġex change
ĠInit ializes
Ġin direct
UD A
Ġpr ime
Ġover lay
è® ¾
P ix
ĠB inding
Log s
List s
ĠIN PUT
Ġre covery
get Elements
xaaaaa aaa
Ġstr cmp
Ġ# {
ĠTime stamp
Ġman age
P kt
S z
Ġtrigger ed
Ġmapping s
ĠSV GA
" {
ĠM UST
Ġcomb ination
ĠS IS
Ġrun e
ĠW ORD
C ss
j pg
icro electronics
567 80
Ġc andidate
F LEX
Ġmill iseconds
tod o
work space
0002 0000
p ay
48 5
c rt
no ise
MS M
es w
æķ° æį®
format ter
X w
r mi
ATTR S
anc y
re load
mp c
T ED
scill ator
limit ed
Ġm f
RE COVER
ĠO V
gate way
MC I
Ġqu ick
HY z
ĠDel ay
L Z
x DC
LAY OUT
sanit izer
bl as
80 80
Ġbt n
Ġr te
Ġlock s
Ġ( ));
ĠP os
Ġformat ted
Per f
ĠP a
ĠP arent
Null Exception
A verage
ĠC rypto
be an
sc hemas
ou ve
second ary
HANDLE D
un i
Bl ack
00000000 0000000
C opyright
lic es
ĠEn code
D ONT
ĠA E
ĠP od
ĠF IR
ĠApp le
8 0000001
0000 2
ĠP layer
Inter op
PLAY ER
Ġacc el
Ġrender ing
Ap is
h m
ĠSTR ING
ĠM CF
(/ \
t one
ĠComp iler
Ad apt
ado op
R d
EM R
U AL
get Num
200 9
Py thon
o a
ĠR ole
Ġad vert
n th
is Null
() -
au ss
STR ONG
Ġs ink
Ġoper ands
ĠDes er
Ġtmp reg
Ġin verse
n sec
im ag
ĠC ALL
IR K
is Function
VARI ABLE
up s
Ġdef late
L SL
f q
9 08
u ffff
Ġi xD
CHAN GED
ĠM aybe
Ġs mp
b trfs
IP A
Quant ity
Ġe poch
g if
RUN NING
Ġbe an
Q S
r nd
Ġorder ing
I EN
BQ UN
Ġbrc mf
get Logger
CC M
Ġcoefficient s
> ().
W ifi
sys nb
Ġno ise
gt k
AL ARM
Ġassert False
ĠAr ch
ĠS Z
27 2
Version UID
cq e
SH OT
S dk
Ġ1 36
ang er
**** *
Ġt z
msg hdr
writ es
Ġlay ers
={ },
C ER
F p
cbi Ag
k r
br ains
56 77
1111 1111
SC B
T OTAL
j dk
ĠA X
ĠRect angle
ĠĠĠĠĠĠĠĠĠĠĠĠĠĠĠĠĠĠĠĠĠĠĠĠĠĠĠĠĠĠĠĠĠĠĠĠĠĠĠĠĠĠĠĠĠĠĠĠĠĠĠĠĠĠĠĠĠĠĠĠĠĠĠĠ ĠĠĠĠĠ
Ġ1 19
M SEL
de sign
Diagnost ic
par ms
m anaged
ro l
ex ecution
ĠMD IO
80 20
P reference
std int
Property Name
Ġ1 75
yy t
ĉĉ Ċ
ĠV LAN
lin ed
erm al
n z
Ġa verage
s quare
ra id
ĠH AS
Ġvis itor
V IS
Ġan alysis
4 69
P ressed
04 1
reg exp
35 1
h dma
con verter
con tinu
ĠSTM icroelectronics
03 7
ĠHash Set
Ġqu ote
44 3
ĠE LF
ine l
Ġl m
ĠM SI
link ed
Index es
NET WORK
O s
Ġ' (
38 5
b rc
c ck
54 9
PRODU CT
C lean
Register Type
und o
L azy
Ġ( #
are na
32 00
Ġc ut
ĠT I
D CT
con c
qu ared
Ġw c
ĠDo es
VER BOSE
Ġsecond ary
Ġpro t
M er
Ġpro cedure
SPD IF
Ġday s
ĠRet rieve
cl en
ĠPROG MEM
Ġp fn
ĠU V
m orph
Access ible
Word s
WA VE
é Ķ
EN CODE
ĠM aster
19 058
Ġinter pret
Ġsid l
M ER
lo pe
: </
G BE
mut ation
Ġcap ability
N AN
Ġen counter
Ġpro cesses
F V
C red
bat im
ĠF ace
)) },
Ġs x
Ġcl i
lv l
ĠU CHAR
) '
M is
33 1
Ġcod ing
DE PRECATED
ut ation
CO E
View s
Ġb roadcast
Ġr sa
Deser ialize
Ġtrans formation
LE SS
ĠC EC
Ġ17 590
X R
ĠW ill
s low
le y
tr anspose
Ġrequire ments
sw ith
Loc ator
Ġgl m
Ġtime spec
åŃ ĺ
ĠSy mfony
D CC
ĠI CU
To Int
77 9
String Ref
Ġ{ })
pc d
vo y
ĠThe y
Ġd lm
Ġj peg
44 7
N PC
N a
------------ */
87 4
ĠUN IP
ĠU sing
Ġtrain ing
IP C
add itional
multip ly
b rightness
Ġcap abilities
ĠMet adata
QU AD
ĠT urn
Ġ1 26
wr ong
res olution
Ġh ide
SCR ATCH
ĠV C
ul let
d ater
Ġ************************************************************************* ***/
en queue
= ?
google ads
ouve au
3 88
Ġfix ture
54 5
C urrency
Ref lect
um a
29 7
RD PCS
z u
Ġmm TPC
UN SIGNED
ĠĠĠĠĠĠĠĠĠĠĠĠĠĠĠĠĠĠĠĠĠĠĠĠĠĠĠĠĠĠĠĠĠĠĠĠĠĠĠĠĠĠĠĠĠĠĠĠĠĠĠĠĠĠĠĠĠĠĠĠĠĠĠĠ ĠĠĠĠĠĠĠĠĠĠĠ
ĠJ U
Ġdeclar ations
ä¸ Ĭ
app ers
PROTO BUF
ĠAb ort
ĠLink ed
pect or
APP L
We apon
L ook
b id
j query
prevent Default
open api
is EqualTo
Ġ( --
TH R
C riterion
Ġan swer
å¯ ¹
74 6
support s
fe at
Ġ// ////////////////////////////////
ĠEx pect
F Q
stand ing
st one
0000 02
Re cv
inner HTML
Ġh yp
ex change
ĠName space
ENCOD ING
IC B
PD F
CAL IB
ĠT CC
Ġpy thon
H Q
H ide
ain ing
watch dog
Qual ity
Ġpro tect
il ine
ĠT CG
ad oc
er archy
Ġser ialization
ĠGL M
assert False
LOW ER
pair s
tx n
h orizontal
L ed
ĠT M
Alloc ate
B OT
ĠH ANDLE
ur a
Ġserial VersionUID
ME SH
iter ation
åħ ¥
8 20
sm ithy
Ġ* ----------------------------------------------------------------
CALLBACK S
as hes
agent o
GLIBC XX
L arge
Or Update
Or Empty
Transform er
Try Catch
ĠCon tact
Ġ1 13
En coded
Trans mit
De pendencies
Format s
Ġ= ========================================================================
Ġf ac
Analy zer
5 40
Ġe mbed
lu ent
pi e
assert That
are n
Ġch anging
Msg hdr
ĠSm art
Auto scaler
D ll
55 7
D h
lo lo
Dis covery
V m
} (
spec s
p ared
B AT
"}, {"
Ġhelp ers
ĠH I
ar ter
ĠPre pare
HR TIM
Re verse
} ");
err a
ah d
Bound ary
], "
28 1
Ġp seudo
y led
M sp
i y
================================ ========================
Pr incipal
Ġ ign
ĠPI PE
ç ¬
99 7
Ġthere fore
! [
AG C
Ġplace holder
UNIF ORM
K eep
Ġexpress ions
S v
heck ed
ĠDE SCRIP
ĠSty le
ĠSc ale
_ ("
P N
M icro
); }
ĠSC IP
al so
ĠĠĠĠĠĠĠĠĠĠĠĠĠĠĠĠĠĠĠĠ Ċ
{{ {{
Ġ" ,"
n cpy
ä¸ ĭ
CM S
Ġ(; ;)
POL Y
S AND
rout es
OFF S
direct ive
47 6
inger print
cal endar
h xx
ĠLine ar
Ar m
. ');
aph ore
cap abilities
omat ic
ĠC y
pro vide
Ġfile path
Sh utdown
Cur r
en us
} ")
enc er
init ializer
im ize
Ġpur poses
s ol
n len
Ġwh y
k d
Ġre levant
FR M
Implement ed
Ġc pp
Ġwh itespace
Ġrad io
then Return
is csi
Ġ//! <
Ġt vb
ĠData Type
web kit
44 44
PL LI
Ġn x
[] >
77 4
Conf irm
89 0
s parse
Ġcfg BIF
sh uffle
n of
final ize
in cluding
t pl
un able
err s
G ain
89 7
c ertificate
Ġ Ñģ
34 3
EN TRIES
ĠG en
Dis pose
æ ¬
Ġcon verter
ĠR ate
ĠNot ification
ĠHR TIM
t dm
Ġs pl
frame buffer
Ġinv ocation
Imp licit
57 5
Ġde comp
34 2
with out
0000 04
Ġsign ificant
Per iph
ĠS can
Ġsc hed
Ġmod ifier
ĠH D
Im mediate
SCAN CODE
L AND
M ar
h da
Ġq t
auth entication
14 80
Ġacc ur
Ġhig hest
z t
æľ ¬
m ute
ĠSTD METHOD
} ]
mob ile
SG IX
Ġretrie ved
tern at
ĠRe store
H ot
SE CONDS
l bl
Ġlook ing
Private Key
F ac
Ġq n
Ġ199 8
IO V
de pendency
sp dif
Ġuser Id
Ġ2 048
OSPEED R
æ ı
ĠD irectory
(' ../
Stream ing
ĠAD DR
D to
CO MB
L SR
ĠP ID
CAP S
Ġon to
WE IGHT
Re presentation
Ġnew ly
llum inate
W STR
Ġme chanism
ATEG ORY
K C
sm i
MAN AG
Ġre cursive
op c
Ġu x
) ],
Dim ensions
T s
ĠInt Ptr
Pat ient
er ical
ĠRD PCSTX
NE ON
Ġwh ite
ĠS CTP
Ġm u
w ater
h yper
) }},
DI RECTION
dat as
EXTEN DED
ĠP ossible
sp l
Button s
Ġscal ed
R t
an alysis
Ġ" </
plan es
VARI ANT
çł ģ
C are
Tri angle
Qu ote
Ġ// //
co in
POL ARITY
Index ed
9 80
T DM
imit er
P references
ĠR W
util ity
Ġas sembly
Ġ1 29
lo ser
El se
ĠD NX
Ġj p
Ġmean ing
ot es
OK IE
ĠRe p
char Code
9 170
Pointer Exception
ĠAdd itional
iv ial
b box
olut ions
Ġin dependent
B i
Am erica
Ġent ities
0 24
Connection s
Ġsim de
bucket s
ĠD RV
: {"
Ġhow ever
X IO
ST ORM
Ġ" &
D SC
interrupt s
Ġl w
read able
FORCE INLINE
ĠDefault s
l ut
ĠF ault
CF S
ter y
ĠB LE
) >>
Effect s
ist ency
run ner
ĠOp code
Ġtest ed
poss ible
oo b
tp g
Start Time
Ġĉĉĉĉĉĉ ĠĠĠĠ
ĠÐ ²
64 5
cp umask
R w
AN ALOG
ĠSDM MC
W W
print StackTrace
ç ¼
(" $
Det ector
fs l
pect rum
ĠP URE
W ATCH
us p
bss id
es Module
00 28
Ġexecut or
O GLE
F AC
Y NOS
> ());
do es
Ġcause s
te mplates
si a
z c
CHANNEL S
r ices
CLK SEL
0000000000000000 0000000000000000
pop up
Ġel f
éĹ ´
W ill
arb age
Ġvar s
G AM
å ŀ
55 4
ĠRout e
block size
cre dentials
I SE
MOD IFY
OR IG
-+-+-+-+ -+-+-+-+
Mut able
in verse
ĠF actory
I K
ext ern
first Child
O RE
39 8
ĠCon tains
Ġ âĶ
Role Binding
I mmutable
Ġseem s
Ġ -----
Hash Code
64 3
ĠH SE
A IR
æĪ ·
MC AST
pi ct
user Id
ĠUtil s
G reater
": [
eg ers
ĠFLA G
Ġint ent
RE SU
(' <
86 7
x msemse
ular ity
ĉĉ Ġ
phy dev
mo zilla
Ġv t
tim ings
Ġ/************************************************************************ */
interrupt ible
Ġsignal s
89 5
Ġimport ant
m cast
ĠSy ntax
on om
Ġ@ "
el m
ĠF MT
msg len
W alk
un ordered
ĠG iven
fil p
ĠW orld
) %
n itude
59 6
current Time
Ġ1 30
01 000000
Ġde ployment
06 9
Ġin d
K e
Ġf aster
EN SION
S ENSE
ab e
vis ual
=[ ];
s and
Or dinal
89 4
Ġc rtc
Second ary
54 8
unct uation
54 6
ĠR ad
Assert ion
MA S
xD A
Ġpro g
AL WAYS
S CTP
LEG ACY
Pro tection
H OR
Ġd ropped
Ġg ives
VM ID
s rq
Ġappro x
get Operand
f ollow
N eeded
Ġcalcul ation
04 7
ou ch
Ġreg ions
Ġr am
ĠAd ded
255 19
Tree Node
Ġjo urnal
Ġassume d
M iddleware
PU ART
ĠP ixel
A wait
ag ram
ms k
Ġ ×
Ġobtain ed
ĠG uid
B IOS
ĠS MC
Q SPI
COMPI LER
im ator
od d
RTA X
Ġ1 21
com b
Pos itions
Ġan alog
asc ade
, ,
Ġguarante ed
T b
ĠA TH
04 2
se en
Ġe mul
à ¶
Ï ĥ
REQUI RED
if p
L n
Indic ator
DO C
tr ig
Sc anner
ĠR I
ĠP red
Ġst btt
ĠPRO TO
ĠC md
Pub lish
St encil
pol ate
v w
Ag gregate
Ġ[ ...
ĠP P
G ate
ĠSpec ial
Ġh tim
ms ix
/** /
} `,
Time val
Ġsec ure
c andidate
cc p
SO F
[ *
Type Id
Ret ention
ĠPro p
F CH
Ġ queued
out ine
37 8
in ing
ĠD uration
Prec ision
39 3
'] [
comm end
Ġm ul
7 134
Ġx mm
"" \
}, "
Ġkey board
AL IA
M HZ
Ġstd err
ag ate
æŀ ľ
ĠS cope
Ġnet if
attach ment
Ġun able
4 10
m arshall
et ter
C ATCH
] ="
Ġ1 40
Sp atial
ĠÐ ½
@ }
print er
Ġdefault Value
not es
Sub mit
Ġg amma
AR N
ĠK ernel
ent ities
I k
Tri p
trans lation
Ġresponse s
k ms
Ġman ip
ĠS uper
Ġact or
Http Request
og us
Ġpr inter
ub i
Ġlist eners
Det ection
ĠR G
g pr
band width
start up
B ASIC
present s
track er
IN O
Ġman ually
ser ve
1234 56789
Dr ive
CL IP
ĠL ookup
Ġstyle s
Ch o
gen e
ĠS rc
ab y
T TL
ĠV X
LE AVE
BL ACK
A FT
07 0
qual ity
S pl
Reg ular
Ġql cnic
pc s
06 2
D id
U tf
or row
dl m
se par
ĠC ategory
ĠDB AL
( ...)
ĠM IB
ĠH SI
Method Impl
ĠTIM x
\ ">
ire cted
Ð ·
own ed
Unm anaged
ĠE Q
Desc riptors
xffffff e
ĠF D
æ± Ĥ
Ġsys fs
ĠTe mple
x DE
Con tinue
08 4
RUN TIME
Ġh b
Ø ¨
ĠFl ash
Sec ure
un ded
M CLK
symbol s
t ie
ens ing
ge om
r ay
example s
\\ .
ie ve
en ance
" })
Ġ9 1
boot strap
entic ate
Ġx s
ĠFl ush
ss p
ROUTE LOC
n la
ĉĉ ĠĠĠ
re main
Ġst b
Ġtool s
O lolo
c group
Ġp referred
! ",
SIGN ATURE
ĠB reak
c ircle
k u
AME L
ul us
ve y
ane ous
ĠN F
Component Model
xD D
I WL
LIT TLE
implement ed
P ag
art icle
ĠA CT
åī į
H OT
BROAD CAST
ĠS ENSOR
Up grade
Ġcon ven
8 40
Instance Of
rout ine
ĠSign ature
Pos itive
Qu ad
ĠValid ation
> `
ĠH ere
ĠV ID
Ġany way
ĠAssert ion
AT M
ĠD rop
b log
Ġcons istent
() +
p olygon
? )
ĠI L
FIL T
f all
Ġe asy
Ġ( ),
xcccccc cc
Ðµ ÑĢ
Ġset Up
VIR TUAL
Ġ1 17
k bd
/* !
ĠX CHAL
type param
MO USE
NO W
Resp onder
p Src
stat istics
Ġdisplay ed
ĠLimit ed
ĠÂ ©
Inter faces
0008 0000
Z Y
OT YPE
P CR
rx q
Express ions
ĠCh anges
sk top
H INT
Ġ' &
} };
ring s
non ce
ĠAF IO
39 4
eg id
DB L
ĠL INE
Reg Exp
w dev
ĠConstruct s
Ġe igen
Art ifact
der ived
26 1
" /
s mbus
ĠĠĠĠĠĠĠ Ċ
D uplicate
ð Ĳ
Ġmer ged
ĠLoc ale
at tention
ĠH CI
Up dates
Ġn to
Handle s
Org anization
mail box
eth tool
" '
Ġcor ner
IN FIN
ĠF LOAT
Web API
0000 9
P ay
EX CLU
Raise s
Ġcan onical
ĠD avid
T IN
ĠCR YP
Ġp wm
ĠM ouse
Q g
Ġ1 32
SHAD OW
V y
x o
invalid ate
000 9
ER VE
ĠMatch er
ex ecutor
c alloc
001 00000
go v
Ġens ures
åĲ ¦
ĠMac ro
C IF
sp ort
Ġr dev
P ick
Ġ* ************************************************
GRE EN
ĠGe o
er p
Ġ\ '
Group Id
chron o
e hci
ĠMon o
G reen
N ano
P i
in formation
J E
Ġclock s
ĠNOR MAL
de compress
PRO XY
Ġs sh
sc anner
n printf
al one
+ \
t ures
FA CTOR
ĠDeprec ated
74 5
Lay ers
Out come
Ġprob lems
work queue
man ual
t tl
Ġx dr
Role Size
Instr ument
Element Type
F rag
69 0
lo ver
ĠIs Set
Object Type
Rout ing
X Path
SP ARE
29 2
ed u
ick ness
Ġend s
Ġcal endar
ctl r
Ġ INTERNAL
GLE W
ne igh
sl ide
pub lish
ide nce
File Info
R aster
SUR FACE
PRE D
Watch er
03 6
w lan
88 6
200 5
Ġnot ifier
ĠG T
Ġr tx
CONNECT ED
ĠN GX
xC B
Ġn ic
chart s
86 6
ĠS AS
Ġif def
medi um
Ġdig ital
Ġ ENABLED
¦ Ĥ
atal en
C d
Z m
Ġn sk
X FS
re dis
man ent
Ġgo es
Ġ ----------
Non null
CLK CTRL
Ġhost name
pe l
ĠM MU
tot ypes
Ġre m
RL IMIT
ind irect
ĠCON TROL
l ru
ĠB atch
ĠComp lete
ĠAUT O
f ish
version s
Ġregard less
div ider
Prob lem
8 10
Ġident ical
ĠVis it
cons istent
æİ ¥
Ġhook s
k top
ĠCon tributors
Ġb h
orth and
H istogram
Comp ression
Ġcomm ercial
F tdc
d istribution
UND ER
FO RE
28 2
De Init
Account s
ĠAPI s
Ð ¹
raise s
ens us
ĠDIS ABLE
Ġser ializer
Feed back
V OT
String For
Ġf ib
ci pe
ex ecut
Ġad apt
ĠK eep
ĠI Enumerable
8 38
PP P
8 000000
Ġg d
M otion
åŀ ĭ
Ġ2 20
Ġe ver
XXXX XXXX
mt ime
r is
z i
io base
Ġgr adient
K w
ah b
lex er
ĠInit ialization
fc nt
ĠF ire
Mode s
h n
CRIT ICAL
ĠI SR
Ġre curs
ĠP OL
DU MMY
Config s
ĠOper and
enc ent
Ġm n
ĠM IX
ç Ĳ
Pro ducer
ĠD iv
m any
Ġplugin s
ar able
Ġdw c
ĠRe place
Ġn ft
Ġb roken
ĠC LI
re moved
co v
ĉ ĠĠĠĠ
Ġ_ ("
for ge
tr an
P referred
Co ordinate
Ġx x
ch own
Ġde pendent
Ġpr agma
im c
Z ONE
av ity
es is
ĠD ict
Ġcl amp
ĠCom ment
ll d
Un do
Ġ/** */
g x
Leg acy
ro ck
). __
Ġtick s
Ġ// ------------------------------------------------
29 1
Ġĉĉĉĉĉĉ ĠĠĠĠĠ
status Code
Comp ress
ph an
clu sters
Ġdiv ision
Ġr val
Ġg lew
zz zz
ç ľ
h ar
F oundation
Ġaccept ed
S AT
Ġpack ages
C ent
COD ER
Ġare n
ĠRe vision
inter p
$ _
Ġcell s
æ µ
89 8
Ġn i
or a
ãĤ Ĵ
Ġcorrespon ds
om b
develo per
W t
TE GRA
ãģ Ĺ
PL U
Ġ'. '
Count s
Ġexp ired
Int Ptr
ip a
ER IC
de g
Ġiss ues
filter ed
CUR R
BIND ING
L ARGE
é Ŀ
84 5
ĠB M
ns ity
m avlink
234 56
Ġbat adv
Ġc losing
] &&
Res ume
69 3
ĠC U
ĠT erm
==== ==
CT YPE
Ġoper ating
Port s
X OR
ĠE thernet
ä» ¥
ch a
ĠH B
L N
Ġo mitted
FOLD ER
Par sing
e uid
pg d
st h
termin ate
ĠIn str
ĠS parse
re aded
) </
Ġ9 4
Ġbecome s
88 4
)} ),
spr ite
end code
å¼ ı
H OP
FOR WARD
Trans late
EB AD
ĠCh ain
D k
Ġdeterm ined
sc p
Runtime Exception
XY GEN
Enumer ator
SS w
Ġqu eries
Cover age
so lete
imit ives
Ġre commended
Ġintern ally
Role s
b al
^^^^ ^^^^
IF CR
D ummy
ump tion
Ġsection s
writ able
ord ers
J t
SV G
à ·
Com bine
O ct
Ġf re
CE LL
ĠC ar
assert Raises
Ġo pp
Im g
{ -
se ll
Le ase
We ak
rg ba
dir s
Ġlocal Var
top ology
Ġposs ibly
Pro be
ce stor
Ġse ct
CH ILD
02 9
xE C
Ġpop ulated
f pu
Ex clude
} ],
04 6
trans mit
ĠB SP
ĠMOD IFY
Ġg uid
Type Meta
termin ated
________________ ________________
M ass
S ince
Ġb ail
tp s
0004 0000
ĠUnsupported OperationException
Place ment
ĠC AL
C leanup
Sl ave
RE LOC
b ench
Ġ1 24
p ayment
J B
i ans
per missions
CR L
SR V
Col l
ĠL IN
Get Name
ĠW A
Ġa z
ĠBig Integer
ĠI H
LO UD
md b
f act
Ġ"/ "
ĠI SCSI
FIR MWARE
j mp
Ġ02 111
MEDI UM
sr s
74 7
c decl
f allback
JO IN
Ġtr affic
REQUI RE
") }
L j
USB D
): (
8 50
Ġn id
REPL Y
Ġup dating
09 7
drop down
semse Q
C andidate
P x
Match ing
ĠS F
xE B
c losure
12 12
as p
as sembler
Comp ressed
Size In
sl ash
d addr
Ġsim d
ru ption
40 96
Mon o
Ġtre at
Ġz lib
Ġres olver
ĠR APIDJSON
m ong
Ġcomp any
ĠMatrix Type
strict Equal
g lob
ĠC riteria
è ĩ
P df
] ==
Mapping s
y ield
Ch ip
jack son
Load Balancer
ĠC ost
Ġif ace
Ġ áĥ
ENC IL
pc r
Wr apped
Dig its
unt il
l h
H OLD
S MA
27 3
E PERM
Ġf il
DR IVE
35 3
w ol
Frame buffer
Pod Autoscaler
ĠRaw Sockaddr
oc c
D up
W Q
Ġaddr len
Ġp buf
CONTA INER
i Var
iss ion
w ave
Ġw mi
LOCK ED
Ġcl azz
case cmp
GLOBAL S
Ġ}, {
55 8
Call able
Ġ1 000000
SA CTION
ĠS EL
Ġper forms
ĠDe v
M ime
um ing
ĠA UX
SMP R
732 2
ĠString Ref
ĠField s
EXT PROC
UL ATOR
BO DY
EN XIO
ĠL at
SCO PE
HT T
Ġtermin ated
Ġt bl
h uart
Ġassume s
Ġ RES
------ +
F i
37 2
PORT S
FI ER
E m
Al igned
Ġman ual
T ENSOR
m cp
Ch oice
Ġstart up
De ploy
bat tery
s ap
Ġmp c
Ġround ing
row se
åĬ ¡
L i
; ++
View Model
CONTROL LER
54 2
r id
FF S
Ġlength s
PRI MARY
C ircle
dup lex
FP GA
foot er
Ġcomm unication
Ġn an
Ġs pu
âĸĪâĸĪ âĸĪâĸĪ
Ser ialized
u control
SC IF
unc hecked
SO LE
ay out
W ater
Bt n
D t
ff ic
ĠE F
22 00
RI ER
Ġm map
Spec ification
rece iver
all ery
Bo ard
++++ ++++
ĠT PM
Ġpar ity
ĠU ri
ARG UMENT
Ġ* ((
v tk
urre nce
Ġde limit
bound ary
ĠE SP
Ð° ÑĤ
lic ations
ãĥ ³
DIRECT ORY
(' _
20 48
Ġp ress
f aster
ed id
Ġl im
Ġplat forms
Ġ} .
åį ķ
Ġusers pace
4 17
N FC
Ġ" ).
Ġl t
Ġse quences
vis itor
65 7
IW USR
Ġkey words
C ATEGORY
æ ĭ
p clk
semb le
40 30
c z
800 474
Ġbelong s
Ġcomb ined
ĠC N
getElements By
format ted
F CR
Ġc q
R PM
im ated
P id
ASSEMB LY
un set
set Name
b ps
I STR
56 2
Ġbutton s
A WD
F h
elastic search
Ġfilter ed
Ac quire
cb s
Ġtre ated
r at
Ġskip ped
e ax
ĠU DP
07 8
Bu iltin
FIN AL
gr adient
Ġ(! _
in der
Ġin cre
orb ell
S coped
F it
3 80
Ġqu ota
MO CK
(" --
ĠAss ign
A ux
c rit
97 0
M igration
ĠĠĠĠĠĠĠĠĠĠĠĠĠĠĠĠĠĠĠĠĠĠĠĠĠĠĠĠĠĠĠĠĠĠĠĠĠĠĠĠĠĠĠĠĠĠĠĠĠĠĠĠĠĠĠĠĠĠĠĠĠĠĠĠ ĠĠĠĠ
"," \
Ġpod s
69 6
o hci
Ġp itch
S MU
åı ·
cor ded
Ġdelay ed
99 8
Ġdat as
Num bers
IBUT ES
ab et
pos ix
Ġnorm ally
cho ice
n bytes
r tx
Ġcl aim
K T
Ġtrack ing
ç Ń
cy cl
H our
(" +
ĠF SL
Lat in
k ref
ĠAct ivity
ĠA CK
åĪ Ĺ
ĠUNIP HIER
In Progress
Ġd ns
Ġ` ${
ai sed
ĠC ell
Val C
Ġco eff
C ountry
FL D
r te
Ġ/**************************************************************************** **
Ġex clusive
ĠW TIMER
con cept
LI KE
k y
od b
GL int
ĠID S
Ġaccept s
h op
Ġcomplet ely
Compile Time
Ġwake up
Ġs ampling
b idden
Ġint egers
Ġo dd
ĠD CHECK
ĠImplement ation
D DC
Ġ% .
Ġg uint
) ")
C tl
ME L
Key Value
app le
Re peated
Ġf loor
g able
CL ONE
Ġmult icast
å ¿
.+ ]]
qu ick
R ay
ver sed
List Meta
Implement ation
P ING
3 32
4 57
Ġ â
Ġh da
Ġp Dst
CLU STER
Ġg si
oh n
ĠI X
CO OKIE
Ġk ill
f ade
RO ID
RA DEON
}) },
ĠCond ition
N an
3 17
ĠN B
ĠTechno logies
ĠG UID
L RD
ĠG F
802 154
ST UB
Ġget Name
rev iated
ĠIllegal StateException
ist d
Bu dget
IN VERT
Ġo id
dw c
OWN ER
ĠBase d
ãĤ ĭ
M SP
P en
f riend
ĠC atch
åĮ º
ì Ŀ
ul er
Wait For
Table Name
ag on
fra structure
ĠEx ecution
rout ing
), "
S DRAM
? >
Per formance
Ġvis ual
3 18
MET ADATA
nd x
handle s
Ġb idi
ax i
SS H
Global s
4 00000
æĸ °
8 30
] ");
car rier
SQL ITE
ĠPro xy
an imate
Ġtyp ed
W ide
W b
åĬ ł
ĠE clipse
tool bar
ar win
leg end
Ġcr ash
ec es
m usb
ce c
ĠD iag
ĠFOR CE
++ ];
Ġmod ifiers
SETT INGS
å¸ Ĥ
amar in
V H
95 8
flat ten
Ġsu itable
ĠD ump
Î »
sp acing
Ġlat ency
6 86
k zalloc
ĠS plit
ct s
struct ured
alle st
sing leton
ĠD BUG
Ġirq return
ĠR NA
Ġeth tool
ĠE INVAL
ĠErr no
xf rm
// !
Ġ6 00
ce il
ĠK ERN
as sets
RO LE
GEN MASK
RAN DOM
.... ..
com bine
null able
ĠST ACK
F UL
ef i
T un
Ġ' --
BIT FIELD
ĠREQUI RE
IT IES
Ġth r
Ġerror Code
à ¨
Byte Buffer
ĠBIT S
assert Same
ALIGN MENT
ĠT wo
ĠS peed
XY Z
binding s
Ġ199 7
ide d
av ctx
ĠI ss
**** /
ĠFA ILED
à °
66 9
ĠT V
dy lib
Ġ* ********************************
.* }},
ĠGe ometry
ĠI A
As sembler
it ed
ARE A
Cond itional
ĠS CI
Aut omation
MENT S
H y
T ICK
c db
Ġl b
set ter
Ġsub str
MON O
I a
ĠCurrent ly
e asy
v dd
stit ute
EM IT
er gy
è®¾ ç½®
Ġ1 18
sr am
St udio
Ġrot ate
Inter ceptor
ĠPer iod
ber g
DIG IT
cc c
ĠPRO P
re cursive
key board
decl spec
E mbedded
Ġo w
Ġover write
CON DITION
å ĵ
H ardware
69 7
ACT ER
Ġcol l
Act ual
ĠW ire
/ ",
emon ic
ä¿¡ æģ¯
Ġ2 54
Ag gregation
typ ed
ĠP RS
graph y
D i
vis ions
ME TR
Ġen abling
Ġ9 3
y a
Ġw ish
CR S
Ġor ientation
ot on
)) ));
Dig it
c map
SO UND
ev sel
ard own
Ġin ject
"][ "
T AP
g si
c uda
ream ble
ĠHOLD ER
Ġi ommu
z s
ĠB TC
STAND ARD
FS M
H M
S q
Ge om
List en
Ġab sl
Ġd sp
Ġ[ &
H ier
è¯· æ±Ĥ
00000000 00000
wr apped
IC IT
Ġint ro
Hash Set
Assert ions
36 3
K NOWN
ĠP ub
åĩ º
Ġdb g
ĠSe gment
E MAC
Ġj j
ĠR ound
ĠB oot
de mo
DIS K
j di
Ġv h
:: __
ĠN ONE
la unch
Ġimp ro
un core
Ġup grade
Ġto po
lu etooth
ĠBO OLEAN
Ð ³
z end
ĠI V
LAT ENCY
IZ ER
Ġes p
Ġtransaction s
ighb ors
set State
Ġbuild ing
ang ent
09 4
String To
Sort ed
ĠQ T
Ġoptim ization
ĠFile s
Ġpro totype
47 9
or ientation
Ġexport ed
AT ING
GT K
ĠCh ild
ch ant
B roker
44 9
6 01
ph rase
Ġne ar
ĠC ertificate
Ġh our
ifi able
Ġcancell ation
Co ordinates
uby te
T ITLE
ãģ Ħ
N AT
Ġd ual
O FS
rows able
f uzz
ĠL D
t param
ĠEnable s
h ind
v h
TER MIN
SS R
SEC URE
Ġ1 33
ĠD RI
Ġconvert s
" ',
LOOP BACK
ĠW ake
ĠW S
*=*= *=*=
O A
59 5
ĠPlay back
ĠS ame
Ġbu iltin
HAL T
s park
æ ®
ĠL PFC
çĲ Ĩ
ens it
ĠĠĠĠĠĠĠĠĠĠĠĠĠĠĠĠĠĠĠĠĠĠĠĠĠĠĠĠĠĠ Ċ
ĠC RE
D amage
re nd
ĠT w
ĠTest Case
Ġdirect ive
Ġge o
b one
Ġindex ed
Ġ- (
Check Box
E SP
ret t
Ġrout er
J l
ĠS AI
comp osite
SU FF
p nt
Ġb ot
WR IT
in b
Ġtime val
Test er
Ġex ynos
e le
S ector
ĠW MI
Ġ\ \
G tk
åı Ĥ
ro ps
Ġc at
j ector
de tection
At CompileTime
99 5
OPER AND
Ġcol lation
c as
################################ ################################
Ġenable s
ag c
SK B
ICAgICAg ICAgICAg
Re maining
T er
NewError WithError
Init ializer
Ġh yper
Ġexecut able
ĠD oc
p addr
ep s
Sub net
IP T
is ode
uff man
M N
Field Name
ĠH DP
ans wer
ĠS ide
SE CTOR
it elist
E ID
Tool Strip
track ing
NET LINK
Integr ation
à ¯
ĠĠĠĠĠĠĠĠĠĠĠĠĠĠĠĠĠĠĠĠĠĠĠĠĠĠĠĠĠĠĠĠĠĠĠĠĠĠĠĠĠĠĠĠĠĠĠĠĠĠĠĠĠĠĠĠĠĠĠĠĠĠĠĠ ĠĠĠĠĠĠĠĠĠ
Type Info
em y
57 9
Ġtime d
al con
next Token
ĠĠĠĠ ĉ
SYS CLK
De ferred
Pair s
D m
Ġv elocity
ĠG tk
ack s
ĠSU PP
In ject
ON O
call er
Ġ ])
Ġre load
AD T
sd l
Ġt ot
it ches
Ġdetermin es
00000000 00
ptr diff
pr imitive
Ġ í
config s
36 2
Ġencounter ed
Ġreser ve
Ġsh ard
g ar
q dev
get Item
clk dm
ser ialization
h ole
IN STRU
PIN S
GP SR
< (
D IO
To k
æł ĩ
Ġdis sect
FIX UP
e an
defer red
B etween
C ritical
Hint s
; &#
. {
Ġcustom er
Ġ32 0
q ed
ĠH Y
p M
W V
te ctor
ĠTA SK
Ġback ward
ĠD b
SY SCFG
ĠF IL
est ure
os d
ĠPAR AM
08 6
Ġlock ing
Ġ é
s am
29 3
ST AGE
ms a
CC P
a io
Exp licit
ĠEn ter
cal ib
ern ate
Ġs rv
Ġ199 5
B lank
s lf
ĠC ortex
ä½ ¿
ĠJ O
Al ive
ĠDE SC
fil led
r value
ĠFLA GS
ĠST REAM
Ġx fer
Ġb le
de queue
Part y
AX IS
ĠDESCRIP TION
Ġspecify ing
Ġ//============================================================================ ==
O ES
ĠS un
TRA IN
Ġdel ivery
PE TRA
Ġvalid ator
add Range
ver batim
Or Default
W PTR
MP TY
Ġif ndef
W ave
Acc um
d to
ĠR ot
lit tle
V OTE
ĠAss ume
ECD SA
Ġf id
C ENTER
74 8
W y
Lex er
Ø ¬
== (
7 07
N Y
Ġ_ (
Ġf atal
DIG ITAL
Ġf ee
ĠDBG MCU
ĠPK CS
uro pe
V IO
k k
per form
Vol tage
url s
t ar
DIS C
ĠAUD IO
Binding s
008 00000
Ġp n
C ancellationToken
ĠC OR
IB M
09 1
Func s
quest ion
ĠE l
oc used
Z S
g lfw
Ġpl aced
Schedule d
F IND
Le ave
Ġins pect
æĹ ¥
ĠH at
T SC
Pro viders
COMM ENT
e lems
Data Set
charCode At
ĠO verride
37 1
MP T
Tick s
89 62
ĠComp lex
Con current
Coord s
Ġp olicies
Writ able
ĠW arning
Ġbuf len
Ġpro jection
PC D
ffffff d
Ġs age
P ose
bu st
le et
Marshal er
84 9
Exp ansion
ĠP wr
99 4
DI CT
vol t
Ġcontinu ation
âķĲâķĲ âķĲâķĲ
Ġn fc
M ST
ĠW WDG
ATTR IBUTES
ĠDep loy
28 3
Ġ2 30
Http Response
Ġqual ity
P kg
}} ),
Can onical
ĠS ch
SPE CIAL
Ġlook s
P MD
Ġy es
re pl
od m
200 3
HO OK
Ġm ail
Ġw il
SI ST
UNIP ER
Ġg em
P FI
Re cogn
STRUCT URE
PRE SCALER
field Name
L ua
S olution
CO S
Is Not
Send Fields
pre dicate
x hci
æ ¯
et ype
b map
C losing
in x
44 5
O l
Ġc ritical
Ġ1 34
55 2
ĠM ED
p xa
Node Type
ass ignment
B n
/// <
Ġa a
86 5
her its
EN CRYPT
CAN T
ä½ į
reg istration
Ġh u
Ġs quare
ĠP Y
A i
U g
mer lin
Ġhton s
84 3
Ġg row
Fr action
greg ator
WIN API
Ġs heet
ĠD IG
SN AP
IO MUX
æĸ ¹
84 6
MS VC
ac b
pack ages
Cell s
Cmd Write
Rot ate
faster xml
de mux
Ġ0 01
xFF FFFF
Def ine
Ġannot ations
State fulSet
al ib
tag Name
en na
03 01
Ġl r
Sc ratch
") {
_ |
B UL
Ġio v
Ã §
Fore ign
ĠI DC
H IST
UG H
PLU GIN
p as
S int
n im
C SUM
Ġc g
sub s
s ip
att le
DY N
PART ITION
å ĳ
P TE
UX f
56 990
context s
Ġ** )
s dma
. ;
] ',
IC omp
{ `
Config urations
m st
ĠM R
view port
SP IN
B CR
mp ool
Ġ2 24
Ġ' ?
f ar
v in
ĠG it
ĠO ID
ph abet
Vo ice
sc ache
ĠMUL TI
r ist
lib s
Auth ority
ĠW P
qual ified
ing u
Ġloc ations
Ġp Data
of day
sp awn
(" :
AL READY
ĠD F
ba ud
âĢ Ļ
Ġf sl
Ġr n
Ġr ace
Ġl aunch
ĠG U
Ġrespons ible
Ġtyp ically
æĸĩ ä»¶
":" ","
I SS
Ġcome s
nthe tic
ĠB D
Ġ2 04
ĠW idth
IF MT
() `
Plugin s
ĠBuffer ed
Ġdebug ger
* ((
ĠR TE
07 00
Con tinu
Ġallow ing
NOR M
C SC
f tp
p ressed
Ġoperator s
Ġis o
ul p
ĠSw ap
Ex ceeded
Ġdis connect
h adoop
G it
ãģ Ļ
ph dr
] ()
c ifs
RE VISION
F ee
DA GB
Ġdefer red
Ġv an
Proc Address
U CHAR
W X
C mp
64 2
pre dict
igr ations
; //
ç İ
U PPER
] !=
N c
un istd
get X
PROT OTYPE
Associ ation
ub ic
comp act
ĠI MAGE
PRO TECT
client s
Custom Resource
ĠW L
ĠD irection
trans lated
fix ture
EX PI
Stop ped
Ġ1 39
TY P
ĠC annot
Ġ1 35
Ġcheck point
Tr ait
MT P
tr ait
Ġst e
ĠC PL
sh ard
STR A
An swer
cycle s
LE MENT
ĠR ob
i oun
Ġexecut ing
Ñ ħ
ens upport
Ġm a
ter mios
PAGE S
ĠTr ansport
V HT
Ġ( \
ĠOB JECT
Ġĉĉĉĉĉĉĉĉ ĉĉĉ
' "
56 51
Port al
` ;
url Params
Ġd uplic
ĠR hs
R PTR
om inator
o auth
ig id
Seg ments
ETH TOOL
67 6
cl ause
AL ERT
pro mpt
ing ular
back light
Ġcoord s
B SL
h Wnd
ĠMA KE
ĠRe presents
ĠOb servable
Upper Case
block ed
Widget s
Ġput s
J MP
Ġfilter ing
54 1
Ġv d
Ġr ay
! "
O CT
c wd
Get Current
Ġdo ck
59 4
ĠV I
J P
ĠValue Type
ĠDig ital
Ġp md
== ="
' ");
g ather
p info
Code Attribute
User Data
S aved
p ctl
Ġth ink
Class path
SD A
ser ializer
g db
os ity
ĠM ult
ĠRE F
Ġh ub
3 16
r ds
TRANS FORM
V G
Ġub ifs
MLE lement
å Ŀ
Ġqual ifier
HO ME
Ġg it
åĲ İ
Re striction
Ġ/* <
ĠDeser ialize
ĠC AM
L IM
Ġassert NotNull
Ġown ed
AP ORT
Tool bar
OM h
List View
Ġgoogle api
A ge
Ġ* []
ook ies
Ġiter ations
PRO TECTION
ig hest
TH DR
M obile
ISC SI
Ġstate ments
zz le
ĠM PL
Ġsub set
CH A
s addr
Subsc riber
et c
DU AL
DEL TA
ro c
Ġr ng
GE OME
ĠAd just
pg id
F GR
DIG EST
Ġman ifest
ĠCor p
DIM ENSION
Daemon Set
aint ext
{ \
db al
ĠP tr
ĠOFF SET
fil ing
Ġn at
Ġi pa
Comp uted
ĠO TG
Ġmm MC
Ġen crypted
j k
X ATTR
Un ity
' )).
, *
hint s
c arry
( .
m fc
per cpu
ENCOD ER
sw ig
Ġenum eration
gu ide
nv km
ĠSE LECT
F lex
m bo
ĠP oll
Ġoverride s
Ġb box
ĠLog ical
Ġun iform
ĠRAD IO
E g
ĠD ense
time ofday
off load
Ġ---------------------------------------------------------------- ------------
:[ {
ig a
Set ter
ex clusive
Ġdivide d
ac ob
TO UCH
Ġhe alth
36 1
ĠCOL OR
Bin der
å §
Ġcomput ation
j up
re present
38 3
ĠMix er
match ing
VERTEX ATTRIB
ST ENCIL
Ġpin ctrl
Ġch o
Host name
Ġlow est
job s
sl ider
Ġ---------------------------------------------------------------- ----------------
ĠMet ric
ĠEd it
path name
J j
Go od
C at
Ġb a
08 5
at ic
Call ing
Read able
Ġevalu ation
ĠNo thing
M id
ĠPwr CmdWrite
CONFIG URATION
ĠV IR
query Parameters
ITH ER
C s
frag s
05 7
author ized
entic ator
ĠM anager
D ense
ĠRun nable
Ġg k
offset of
c ategories
ĠINT EL
APPL ICATION
De leg
serv let
u Z
N z
stream ing
8 18
Ġd ash
Ġcom bin
F Z
F w
DE CODE
mapping s
Ġ// ****************************************************************************
Buffer ed
Ġb ulk
B ST
Ġj oint
b ond
C pltCallback
ex pires
Ġnew Value
TIMED OUT
ĠAt tributes
ĠM esh
LE Y
Ġrece ives
å Ļ
GROUP S
ud f
P lease
Ġ} },
Ġdb al
Ġd B
C VMX
Ġdis p
r type
ad vert
=" '
Ã £
NAME S
ales ce
pict ure
p res
Ġ RESULT
google apis
----------- */
Ġbound ing
pop ulate
ĠT ick
ĀĀ Ā
H and
F ETCH
St ar
Ġz oom
as er
mod ifier
Ġe i
p ip
ĠC ancel
am mar
Ġnil fs
List Item
st o
ro te
Ġs olver
66 5
ĠU Char
Ġwant s
get Path
ĠEn coding
WORD S
r ans
qu encer
Ġview port
PL Y
x chg
Ġn fp
file system
ĠDef inition
Ph y
W arn
w f
u lo
Ġpr im
ĠAR CH
m ixed
te k
PP PIO
MACH INE
ĠOper ator
ĠDep ende
owner Document
Matrix Type
DM IC
Q I
( ...
Ġn and
Default Value
Change Listener
bo ss
h am
ĠS to
5 11
C ause
Ġg int
55 1
Ġh dmi
UN I
W ake
task let
ĠPFNGL GET
DO CU
TI L
ĠF AR
prob lem
AL C
Ġc tr
UN REACH
P ersistence
dev priv
Ġcause d
X M
Ġmask s
Ġ1 47
MA DV
ir ing
Ġattemp ts
B NX
Parse Error
Ġconf irm
dim ensions
Ġf an
ĠIN STR
g as
iv ities
4 56
dev el
par ity
ĠP OST
m iddle
ĠN eg
Ġdescrib ing
QU IRK
Ġse maphore
Ġinvalid ate
ĠV oid
ĠP ACKET
ĠMETH OD
ĠBl ack
Ġcall able
002 00000
Ġmultip ly
f lo
ĠT ab
Ġx l
OP A
g test
L hs
Ġ& #
cor ner
Ġn ouveau
55 3
ĠS RAM
mask s
Ġmin utes
Wr ong
Tr ade
Ololo Ololo
serv ation
ĠN R
Ġsuc ceeded
A IM
case s
mp p
ĠPro file
Ġ/ ^
Case s
pp d
s coped
LET ED
ç ®
ĠName d
Ġcom ma
r tp
Ġk s
IR DA
Min or
ĠNRF X
ĠIn ner
18 00
ir it
TH ROT
) ";
Ġf g
/ _
Ġs pr
F am
ĠCAP ITAL
Th rough
Ġ'- '
Trans formation
MO RE
G ot
ĠB ind
ĠEqual s
led s
21 00
In direct
Ġread able
h andshake
Enum Member
Ġh fi
As pect
DB Y
le ter
orb is
Get Object
Ġutil ity
è Ģ
Ġ0 644
() ){
5 02
ĠD ialog
01 23
q m
RE JECT
R om
\ /
err ain
GR BM
Ġcontrol led
get Line
z msemse
Ġre jected
ĠTH M
ĠSO AP
SCAL AR
ĠH ardware
L u
Ste ps
n ex
ass igned
gener ation
Ġget attr
Ġsub system
pl ist
ot ed
s oftware
Ġ*) ((
Ġro ck
P ri
Ġtw ice
ĠI con
ĠI WL
Ġg fs
CC ER
DF Y
ĠA CL
ĠPHP Excel
Ġguarante e
Pl ural
Res olved
Ġmap per
D G
op p
Ġtermin ate
Av ailability
temp ts
ĠThere fore
B est
f ly
Sem aphore
dev data
ER A
R cv
Ġp ivot
ĠE CC
ex press
Ġhint s
MD IO
I l
ch mod
Ġof s
ufact urer
ĠMin imum
Ġschedule d
V ENT
Ġc ourse
- "
87 8
Ġpop ulate
CE PT
sk in
kl ass
Ġa mb
out line
Ġenum erate
ĠA FE
OP TS
wait ing
as oc
We ights
IST ERS
Ġc atalog
aff inity
EXPECT ED
Red is
coll apse
TI AL
pro f
Sp ot
Ġl in
38 2
//////////////// ////////
02 000000
T ax
PT P
add All
ĠDU K
ter ms
P iece
Ġbe y
r sv
ĠDRI VER
Match ers
ĠS EQ
Ġel apsed
it ation
anc hes
se gs
ACCE S
V PORT
b mc
u w
Ï Ģ
Ġcomp letes
re alloc
ext ends
Short cut
å »
draw able
Ġp ersistent
d ce
NO TIF
dup licate
de ploy
ĠP ACK
* .
RT W
mk dir
F ollow
J ump
ic ol
PARAMETER S
In herit
74 2
æ¬ ¡
13 05
H k
å¤ §
S ENT
Ġ" ."
Ġxml ns
Ġaccess ing
S quare
conf lict
Ġsc nprintf
K G
æ Ĭ
ĠInput Stream
Ġdeser ialized
54 3
ri p
az e
Ġprint k
connection s
Evalu ation
CONTIN UE
ĠR IGHT
CE C
Ġ2 48
ol t
Is Nil
ĠPet sc
0 25
ĠBIG NUM
Ġes lint
HE AP
al formed
Ġtr ait
ĠOn ce
Ġe fficient
Ġ' ('
S x
CH SEL
S CK
ĠQ LA
Ġs ch
<<<< <<<<
ĠĠĠĠĠĠĠĠĠĠĠĠĠĠĠĠĠĠĠĠĠĠĠĠĠĠĠĠĠĠĠĠĠĠĠĠĠĠĠĠĠĠĠĠĠĠĠĠĠĠĠĠĠĠĠĠĠĠĠĠĠĠĠĠ ĠĠĠĠĠĠĠĠĠĠĠĠĠĠĠĠĠĠĠĠĠĠĠĠĠĠĠĠĠĠĠĠĠĠĠĠĠĠĠĠĠĠĠĠĠĠĠĠĠĠĠĠĠĠĠĠĠĠĠĠĠĠĠĠ
ap pro
ĠM ultip
ĠB IOS
ĠF uture
ĠE valu
set Timeout
PACK AGE
T EN
ĠB FA
Ġvirt io
Basic Block
M MAP
Key words
RT MP
Ġexp anded
Ġ// ================================================================
t BQUN
ĠB TRFS
J y
Ġ/ ************************************************
Ġback wards
Ġremain der
ĠS CE
04 30
ĠSystem s
get User
ng x
FR ONT
ĠCal endar
Tr ust
7 20
Ð ±
Ġg zip
N SS
AB B
Ob servable
Ġnv me
R DMA
ĠMod ify
ĠD ummy
v node
ĠE T
Schema Props
q spi
, ",
Ġb m
lo ff
Ġz eros
rib ed
3 19
Ø Ń
bl ur
W as
F a
85 8
Ġcor rupt
57 0
Ġt ries
T Z
Ġpy test
tick et
Ġp pc
%%%%%%%% %%%%%%%%
role s
get ter
au ght
Ġbey ond
Lo ss
Ġa k
Re covery
SEPAR ATOR
Ġ" ),
pr m
c art
Not Supported
Å ¡
pl orer
Ð¾ ÑĢ
Ġf use
ce dence
TUN NEL
ĠS TA
Ġmov ing
b q
Ġc ifs
index es
Ġnfs d
Ġm ime
T MON
FIELD S
RT SR
F DC
0 899
Ġreg exp
Blue print
s se
ag p
Ġm box
sp here
( \"
us art
FRAG MENT
M DMA
Iter able
áĥĲ áĥ
ĠH FILL
t dma
has Class
ĠBl ue
Ġt tm
de mod
Ġband width
V s
A z
Ġre loc
C UT
J NI
VD D
addr len
**** **
17 12
ensit ivity
Ġ/** *
W DP
) ])
Ġr l
S py
AL K
sub type
default Value
" ",
ALG OR
clock s
Ġgraph ics
ĠV GA
br id
Ġav ail
6666 6666
Ġ& ,
ĠEN GINE
Ġu char
ec ma
Su c
getElement ById
cf b
* \\
Y i
ç ´
Ġch r
Ñ Ī
ee f
IC A
Ġexample s
m cs
Ġx i
Ġ8 00
ĠB ound
W allet
author ization
RES ERVE
é ľ
tr unc
get All
cap tion
D SA
D emo
ioun map
err al
shr ink
Ġquest ion
Se par
IsNull OrEmpty
C String
E GR
Ġg ateway
200 2
jup iter
Cal c
Ġf ine
ĠH z
IN STR
pear ance
vid ioc
Ġrec ipient
8 11
rec ision
E I
Ġl u
string stream
ĠLO CK
ĠB enchmark
ch ase
. ')
Require ment
Ġrestriction s
In variant
em semse
f open
Fk msemse
Ġh andshake
pl s
up grade
Ġp asses
Ġm wifiex
Ġget ter
lib System
Ġ2 14
i en
Ġal ternate
Ġhigh light
7 18
P itch
Ġh ist
OPTION AL
47 0
un bind
Set Value
Ġdiv ider
P k
af b
Ġ2 08
Ġd v
Ġ[] (
man ifest
ĠCG AL
(" (
Ġp al
ĠM ess
p lement
ABC DEF
c err
ĠT B
rt s
un ref
s olver
ĠS MP
__ )->
TL ING
str l
Ġinter mediate
Ġctx t
H andling
Ġstr cpy
ĠJ an
Mix in
Ġpr ice
J UNIPER
Ġf name
Under lying
Ġc ountry
Ġv l
sc c
desc ribe
s ibling
al ty
CM I
49 6
global s
x id
Ġf rozen
Ġs as
xE A
D CR
IT IVE
ĠRe ader
on a
ĠP ending
R hs
c ritical
{ \"
éĩ ı
Ñ Ĩ
quot ed
ĠG ST
ĠN t
ill ary
x r
Ä ±
sp y
Ġwork flow
Doc s
to Have
Reg exp
ich ael
ĠAL T
004 00000
Ġl argest
Evalu ator
Ù ģ
IN J
ĠDest ination
STRA INT
ĠN U
DOCU MENT
STR IDE
ox el
Ġeffect s
UL SE
DO S
CI A
Un available
E H
ĠAL IGN
MIS MATCH
AFT ER
08 000000
INVALID ATE
à ¬
Query Interface
RESU ME
Instance Id
tr acing
Ġre moving
Ġformat ting
dat um
icip ant
ĠS SB
6 80
Ext end
ff c
OL LOW
Internal MessageInfo
pro tect
S LO
Ġg ate
Ġb urst
Pop ulated
cent ral
ĠEX IT
f acet
Cor rect
Ġ[... ]
In verse
A FE
Q x
Ġconsume d
46 8
String Value
te le
05 9
g res
ut y
M GR
CON SOLE
ĠâĶ Ĥ
Token izer
ĠH i
ĠF O
L m
Ġdo ub
FT SR
Ġblock ed
Ġm z
Ġdoc s
log o
Ġa zure
Ġre strict
97 9
contain ers
sampl er
INT C
EX CL
C pp
ĠB SON
AR R
x v
7 000
n to
str conv
Ġc urrency
ĠFree Type
Ġc riteria
P ol
L imits
R ATION
Ġre moves
Ġprint ed
:" \
Ġq ib
check er
Ġse aled
Ġcard s
Open GL
M aker
py test
ĠAd apter
W ay
KEY CODE
Rec order
QUOT A
set Enabled
AV q
Bl k
the ta
Ġappear s
Relation ship
5 14
ĠC amera
train ing
ĠBig Decimal
MA D
Ġal arm
Ġex ceeded
88 1
SER DES
# \
() ()
ĠSer vices
100 1
Ġdebug gee
ent ropy
B RANCH
writ ew
åı ĳ
$ \
month s
Re fs
ĠZ one
a ims
ri ev
Ġsup ply
ERR NO
ml a
arshall ing
comm unity
cu ssion
\" ",
Ġ199 6
ĠRE ST
Sup plier
is olate
OP C
L G
s ensitive
v blank
Start ing
bit rate
var iance
ä½ ľ
sp aced
implement ation
n om
ĠC SI
xff fe
get Source
Ġpattern s
Ġ1 79
ok ed
Qual ified
ive c
post s
JO Y
esc aped
ĠD er
ĠP PI
Ġapp ended
={ };
SE CT
s af
ate ver
04 000000
Ġ( '\
Ġemit ter
E f
R l
V b
Ġdet ailed
text area
Tr affic
Node Id
Wh itespace
Ġtrans fers
00 14
ip er
Ġcomp arator
Ġb son
New Err
O id
Ġauthor ization
Ġlist ed
comp uted
ĠP AT
Err Code
86 8
67 9
ĠF ake
è µ
at o
op ro
G PI
Ġcap s
57 8
Ġ***************************************************************************** /
74 9
b ert
ir k
= ["
one g
Ġattach ment
pmlme priv
CH O
ct ime
he ld
Ġ1 38
Ġ ENC
Re start
re y
esh ut
DC A
F AR
Ġ/* -
ĠPar ams
ĠM G
LA SSERT
WID GET
ĠProcess or
ĠST OP
S ensitive
REG ISTERS
un supported
={ {
Ġag gregate
ĠUN ITY
BACK END
× Ļ
Ġs aa
07 2
Entity Id
ar a
ĠO ld
KEY S
ĠI PPROTO
ĠIn voke
Ġx frm
ulk an
ĠR o
Ġat mel
Add Ref
ĠB ank
Ġser vers
key words
H PD
Ġp reserve
ĠT PS
9999 9999
pos itions
K M
N VM
re tries
ĠG l
56 1
Ġtrans mission
Ġsys ctl
<< (
Ġ1 59
ä½¿ çĶ¨
' }}
Ġsynchron ous
Ġr nd
not ice
HW IO
ĠA re
4 13
Ð¾Ð »
Qual ifier
inal ity
Message Type
ĠBit map
+ ")
Ġc id
init data
Ġaccum ulator
Ġg lob
4 28
5 03
com bo
F allback
p buf
iph ers
Ġk mem
åĻ ¨
ib l
Ġ1 37
ĠAn alog
6 26
Att ack
Pack ages
FR AC
DBG MCU
Ġm age
Trans lator
? ,
ĠA HB
mb H
W o
Ġtri angle
ĠRead s
39 2
gr ant
ps i
lif ecycle
Q s
is NaN
R s
ĠH w
CRE MENT
Ġw d
ul ative
Ġpart icle
Ġda emon
SMA RT
T urn
Ġl z
Ġol der
ç «
SAMPL ER
Aut ow
Ġa cl
integr al
GEOME TRY
ĠMon itor
ĠT LB
ĠI CMP
( {"
Error Message
ĠP U
Ġon Click
ĠTE MP
Ġad c
G ap
Res er
ak a
iter ate
Ġindic ator
C os
ĠA CC
xff d
ĠCH AN
Ġk ern
FE ED
P icture
ter eo
v nd
h ang
mon o
Ġear lier
ff i
( ~
MD S
Ġfor k
can onical
Ġo scillator
ER ASE
Ġg ap
ĠC ARD
Phys ics
Tab Index
k mem
store d
ĠIMG UI
par ty
E IC
Ġport ion
Ġopen ing
Ġrender ed
Top ology
ĠAd min
ĠConvert s
ĠBe fore
V SYNC
n vm
ãģ «
mt k
ä¼ ļ
ĠL ua
L NK
h istogram
n pc
ĠE lf
stanti ate
B SP
P SE
n est
Pattern s
Ġbe acon
sv n
f ol
æ³ ķ
ĠREG ISTER
éĻ ¤
w heel
ĠR REG
ĠAN SI
Ste am
par s
6 06
data Type
ĠDim ension
w string
LO PT
writ ing
ĠC lean
P c
VOT ING
ĠCon f
Ġun do
ħ į
ĠFile Check
N y
Sp in
ĠM ag
ĠP air
dif ference
ĠNot ify
ĠA BS
Char set
T CR
String Utils
sampl ing
MANAG ER
69 5
CM N
TP M
X MM
MON TH
Ġparse Int
Ï Ĥ
ĠE MPTY
Ġtr anspose
Ġsh orthand
Ġval s
ĠH ex
Ġ' +'
Ġbox es
ll i
LI A
Command Line
USH ORT
K ill
p ersistent
64 1
(" ^
NUM ERIC
Ġbuffer ed
ĠDe vices
ut ime
l us
R H
Block Size
L y
SW IZ
á º
ft mp
84 2
b old
NewErr Param
T enant
ĠS RB
MAP PED
U LE
AC ON
09 8
Ġcol lision
57 1
ĠD AG
ĠT D
Check s
Î ¼
FOR K
######## ####
Del ivery
Ġtx t
mock ito
Ġstr ong
89 2
Arr Arr
r xd
38 1
åĬ ¨
v reg
ĠC ancellationToken
08 8
order ing
work s
! =(
Su ggest
Ġ0 00000000000
T ST
Dat um
S CC
Ġw ave
nv me
Ġrece iving
: ");
V N
Place holder
ve locity
æ® µ
Ġac quire
Py x
Click ed
ALLOW ED
Ġx PSR
ĠP PP
ĠPR IV
IN ode
Oper ands
F printf
REG EX
Ġc group
Ġd asd
ĠD ES
ge bra
Ġcond itional
Ä į
ĠSIM DE
Ġh ack
SPEC IF
Ġp ch
fl ight
z n
w allet
ĠCall ing
Ġtun nel
ĠS AM
THROT TLING
( **
Ġrun ner
ãģĹ ãģ
Ġarch itecture
æ ²
Ġl c
script s
Out line
E sc
int Value
REVER SE
p desc
ĠS il
ost Ftdc
wait For
EN CAP
ut ive
z lib
get Local
En ergy
ĠNull PointerException
================================================================================================================================================================================================================================================================ ================================================================================================================================================================================================================================================================
Th ostFtdc
ND IS
25 00
Ġav g
(); \
db l
NE ST
Ġsig ma
RE START
ĠReg ex
ĠCon n
M CF
Sh op
ĠUn ion
REPL ACE
re trie
A ware
à ½
ob s
ĠIn tegr
pg a
hw nd
Exist ing
0 23
ĠD DR
check point
IFI ER
ĠP ull
ĠG mbH
Ġ 802
ĠSc roll
A a
DQ B
ill g
Me an
Ġsub class
row n
:" #
à µ
Ġp reg
IF C
dis covery
Ġ* (*
AND ROID
Ġsy n
ĠJU CE
S ingleton
Ġal g
Ġ" :"
Analy tics
77 2
loop back
s lug
ĠSt d
ed ac
deref erence
BT T
Ġtr ade
4 27
Ġp xa
Ident ifiers
C t
Class Loader
X d
ĠS AA
Ġ= ================
av x
6 16
J av
c riteria
XG I
Ġh t
Ġ! !(
Date Format
ĠHe ap
SI P
c ity
Ġa e
Ġout line
**** ***
W heel
Ġ Ì
ID ENT
C ube
pp y
SP AR
UN DEFINED
09 3
work flow
--------- */
ise cond
ĠException s
d irent
p ud
ĠIN DEX
Ġacces ses
Ġt olerance
ĠCON F
Ġf open
Ġre name
100 2
Ġden se
trip le
Ġe f
Ġch osen
GL FW
ĠSub ject
ĠB FD
ĠW idget
89 1
ĠSc hedule
DE CI
if c
root s
Ġ/**************** ***
cred it
ap d
84 00
expect s
x n
as pect
Ġ1 76
ĠF etch
Ġcal ibration
X amarin
Ġn y
Ġre tries
tun e
ĠLeg acy
PAR TIAL
exp anded
RE P
ĠErr Code
Test Method
currentTime Millis
e de
SC M
lap se
12 71
MD P
BT N
M IR
qu it
FILE S
äº İ
Q j
Ġfail ures
Wait ing
ĠT itle
Ġset Timeout
K IND
ç±» åŀĭ
ĠQuick Fix
fr action
ĠIRQ n
sc atter
ch arger
Autow ired
Ġar row
C e
Ġph p
Ali ases
f at
Com b
st ation
cre en
apt ic
RT T
Ġl cd
COMPRES SED
Ġ__ (
D x
W all
get Resource
LEG AL
r sc
Ġ1 49
IC H
test er
(' -
get Child
for um
ĠĠĠĠĠĠĠĠĠĠĠĠĠĠĠĠĠĠĠĠĠĠĠĠĠĠĠĠĠĠĠ Ċ
Z LE
Ġse p
ĠGO OGLE
y un
Op acity
Ġj et
icon duct
get Width
SER V
)/ (
ent r
Ġre ach
TC A
) <
G UEST
Ġke pt
Y s
Ġ2 17
let ter
Ġt ol
E poch
ĠS pace
zMzM zMzM
A SC
IC SR
uto ff
Block ing
Gr ant
Ġinit ializer
ĠTechno logy
Ġdirect ories
HU GE
n umpy
ĠB undle
M ux
Ġh istogram
DEV LINK
sg i
ĠÐ ´
Ġest ab
Ġs ampler
ED LEY
ĠM ailbox
Ġrout ing
e dev
ĠS LOT
WH ITE
A FF
lin ing
sh op
Ġdestroy ed
G ING
RAT IO
ĠEx tra
L atch
S ATA
jav ax
PL UG
el apsed
Ġab ility
coll ate
E lastic
ĠC oll
W TIMER
D c
R N
ĠM K
de ps
X E
enc ing
WOR LD
Create Info
PLAN E
m otion
Ġun register
Ġ% "
ĠOUT PUT
ĠL INK
+ /
s fp
Ġimport s
Ġt gt
Ġ//**************************************************************************** *
7 11
Bu g
ĠP alette
W DT
4 23
Has Column
iz ers
H j
VI SIBLE
x pr
dd dd
Data Size
Act ivate
" [
domain s
Ex ports
UN IX
Ġscatter list
Ġs ol
Do es
unknown Fields
4 16
ere al
bc ml
ĠSw agger
ĠSY STEM
b ypass
comp ose
de ployment
Min us
}} );
Exp iration
:% .+]]
Ġdocument s
enc ap
oc fs
ĠDest roy
Tri e
Init TypeDef
ot ify
Ġnon ce
Ġ---------------------------------------------------------------- -------------
Spec ifier
564 0
vers ation
read s
4 37
4 67
APP END
Ġcontext s
get State
ev list
CC U
Contain ers
ĠInclude s
INTEN SET
Ġ1 46
Ġcomp ared
document Element
ĠN D
Ġz d
THREAD S
S yn
ON IC
4 11
f ee
Ġis p
ĠSy m
road com
Ġ ê
ur istic
ĠNE TIF
ĠB ecause
MBO X
il legal
) ||(
effect s
Sockaddr Any
GRAPH ICS
Ġcre dential
resh ape
Ġdiv isor
Ġre duction
im a
åĽ ¾
Ġv r
85 2
ali ases
$ (
Ġstream ing
)) ?
ENTI FIER
ĠByte Array
ĠSIM D
pect ive
101 0
V ault
Or ig
ĠI I
Ġreason s
Ġp retty
EL F
New Proc
> /
Aff inity
Ġpre diction
08 7
Lat ency
RD REQ
Ġsub tract
ĠĠĠĠĠĠĠĠĠĠĠĠĠĠĠĠĠĠĠĠĠĠĠĠĠĠĠĠĠĠĠĠĠĠĠĠĠĠĠĠĠĠĠĠĠĠĠĠĠĠĠĠĠĠĠĠĠĠĠĠĠĠĠĠ ĠĠĠĠĠĠĠĠĠĠĠĠ
per formance
Dim s
OPER ATOR
MID CMD
to UpperCase
5 86
he mer
Ġas io
Ġ(( _
J D
De letion
ĠIdent ity
Ġse cp
De velo
5 04
UNIP HY
ĠR NG
ĠA tom
)( __
sig ma
Ġ? ></
NON BLOCK
ax es
Ġle ak
a ac
ĠM apping
Ġu dp
Ġ' ['
æ ¨
Ġact ivate
dd y
Ġ? ??
W l
User Name
ENO SYS
åº ¦
ĠA SM
Ġk rb
åĨ ħ
89 3
T yp
w ell
jo y
0 50
ĠmmMME A
áĥ ĺ
In finity
Ġdebug fs
Ġte mplates
AL GO
Comp ound
By Comparator
Ġop us
Q k
R TOS
ĠW CHAR
ĠFloat ing
Ġg pu
M k
Extract or
avig ate
Rec ipient
Ġl n
ĠAt tach
MIS SION
cmd line
MM M
Subsc ribe
g iven
Ġph i
Network Policy
T abs
aver age
Ġme as
Ġdel iver
H MAC
act ivation
gin es
06 6
PERF MON
Ġb aud
Adv anced
ĠSem iconduct
ĠV ECT
Ġpop up
Access Review
Sim ulation
H old
irection al
Protocol s
i dev
ĠG ROUP
COR R
0000 8
ab fd
enum erable
Ġconstruct ed
R h
B s
Ġof ten
Ġst able
vent ions
87 0
è¿ ĩ
N db
MP C
d io
enc ryption
ĠSV G
S VC
b cd
al ic
un shift
v scale
us able
Ġoff s
Con t
)) ->
diag nost
g row
ut s
Bar rier
ĠC PP
ĠUn ique
4 32
l ite
sr b
md dev
X y
Ġc ms
PAR SER
) `
Ġmm DMA
s alt
Ġo t
ĠA rc
md s
ĠE ffect
Ġde ploy
Ġè İ·åıĸ
SR R
C ategories
Ġax es
ĠAdv anced
× ķ
at an
Ġm iddleware
cover ed
neg ot
th umb
R ob
pos ure
07 9
Des ktop
LIST EN
wh o
io remap
AR GB
89 93
Ġs olid
NV PROC
m ss
Form ula
ĠA m
d ropped
() ];
==== =
per iph
Is Empty
ating Webhook
buf len
child Nodes
ĠTh us
COMP UTE
t body
bug s
FEAT URES
Time spec
lin ical
De ath
11 01
ĠSource Location
for ced
g fp
HARD WARE
array s
class List
09 5
dim m
Ġnew line
get Height
Media Type
CO EF
E TIMEDOUT
SE EK
o op
AMEL LIA
en ger
int ern
Ġu bi
Ġ/* <<
Ġ3 60
Ġ1 56
ib bon
cst ress
. ","
v ram
SH IP
m ant
oc p
( ','
ĠRe st
Ġwhen ever
(" ../
Ġ%{{ .*}},
DB C
Bus y
at m
il ers
w ik
CO EX
ĠV ol
b all
io stream
Ġmeasure ment
4 30
Ġm isc
Cl amp
R ename
I ID
Ġlog ged
16 00
05 1
TRAN SPORT
Ġoptim ized
d ial
ĠD ir
ç» ĵ
Order ed
Wire Format
H IT
ens ive
> */
Ġs itu
ĠPro vider
th ree
af x
Ġlocal ized
INFIN ITY
59 8
MPL S
z ier
97 6
æ Ł¥
pe m
FOR MAN
Mod ifiers
Iter ation
S phere
Tr acing
)))) ))))
car ded
FRE QU
Ġget Value
Ġmin us
B rowsable
. "),
ĠO PA
pro jection
ar Down
Text Field
cc w
cal cul
ĠFF mpeg
Ġ' );
B Len
Ġp ic
= ",
," \
ĠMC U
EnumMember Attribute
ĠP ATH
Ġle ad
E OL
ili ary
Ġeffect ive
g ro
4 14
F g
00 29
synchron ous
se maphore
FORMAN CE
ä¸Ģ ä¸ª
def initions
Ġr ates
index ed
Ġesc aped
ĠG LOBAL
pp os
Ġhi erarchy
w ap
A cl
SECOND ARY
CAP ABILITY
ĠAMD GPU
p reempt
B Z
d av
pk cs
IF A
inter sect
Ġc ircle
B ias
Ġlua L
MA NU
ĠE MAC
RO Y
]) <<
Ġpriv ile
XN qmsemse
Ġg spca
E CONN
den se
LD AP
ĠP erson
p wd
I OR
I IO
un prepare
scroll Top
Sim d
4 19
ĠFrame work
cr im
ĠLO AD
h ort
ĠReturn ed
Ġi op
-> __
morph ic
06 5
M n
ĠIP V
Ġclose st
R ISING
Ġst and
SE LECTION
& (
Ġstr error
De p
< -
I am
Temp orary
sim d
p vt
Î ·
TC B
RX DMA
C PL
ap b
Ġnot ifications
CLO EXEC
err msg
reg ular
auss ian
Ġlo ops
7 40
Ġdomain Object
read Int
id ue
Ġbound aries
add resses
start ing
Ġact ivation
Ġautomat ic
ĠE D
Ġ////////////////////////////////////////////////////////////////////////////// /
SU RE
Illegal ArgumentException
ere um
J ar
end points
view er
y ou
101 1
Ġwrit able
Ġbl end
Init ialization
Ġ1 57
Ġret Val
poll ing
Pub lisher
B AL
ĠR HS
Ġref ers
Sl ide
LIKE LY
B CN
date picker
Register ed
ĠV B
Ġali ases
Not es
Ġder ivative
k ube
m and
Servlet Request
nt fs
ĠIn tr
ĠC ast
e pl
ç ¨
ĠAs set
A sm
or i
ĠCur sor
SUN XI
LOG IC
7 21
ce ph
Ġdesign ates
ECH O
ĠS IO
RD ONLY
TW O
ternat ively
ĠIn crement
I i
æľ Ģ
ĠAss oci
99 2
Ġconstruct s
ĠSpec ify
Ġdraw ing
Ġh uman
Ġh l
| '
LAND S
3 56
arb on
B SS
66 2
) ","
Ver b
Ġ5 000
pos able
H ours
ry st
cond itional
--- +
TA X
Ġtool tip
Ġcomp osite
V Q
ĠAuth entication
Ġb tree
std def
SWIZ ZLE
v co
le table
ĠA I
L b
des ired
get Object
Result Set
da emon
Page Size
V u
str ipe
(_ .
ĠQu ant
ĠArgument NullException
ĠS MARTCARD
MB R
Ġs prite
éľ Ģ
+ ="
(_ )
ĠS EEK
Ġoption ally
S ORT
O v
Ġent ropy
EM UL
ĠM aterial
ĠR R
IM UM
V REF
bo th
ack ets
ĠL N
Ġ" ]
Quest ion
de init
cap t
@@ @@
f abs
Ġc w
Inter action
ĠRC AR
Ġtrans l
Ġabort ed
Char T
ĠG reen
5 25
h ouse
ĠOpen GL
Q C
IRQ Handler
ĠA G
Co ex
Ġs ay
ms b
ĠPro b
Ġview s
ĠB F
cpu id
start swith
Ġmp i
Ġinter section
Ġgener ating
Ġe z
TO G
riev es
Ġgr p
ãĥ Ī
Ġgr ad
dat ap
c ern
Un used
K n
åıĤ æķ°
F IF
Ġ( ++)
Al go
Ġ(* )
P DU
ile s
Ġsm art
Rel ated
æ Ľ
encrypt ed
ĠRe moves
Ġĉĉĉĉĉĉ ĠĠĠĠĠĠ
äº Ĩ
P GA
account s
c lo
J OB
ĠCO RE
F LL
FL IP
77 3
SPECIF IC
X s
Al ways
RC AR
Ġh c
V ehicle
CRYP TION
ĠSY N
MISS ING
S ynchron
', /**/
Ðµ ÑĤ
v bi
VALID ATE
AX I
Ġw t
04 35
S FR
Ġrespect ively
get Column
P ing
( #
E DED
mat ic
Ġa es
Ġl un
ĠMethod s
å Ĵ
param ref
z y
]] :
66 8
rot tl
sub sys
Ġ'; ',
m arshaller
ilt In
Ġdelimit er
45 3
Ù ī
sym link
ĠPre vent
Ġshort cut
ĠCal cul
Ġsm u
D FSDM
ĠMA CH
ext ents
L eshut
k h
Text String
K VM
Collect ors
Ġ( @
Ġg sl
28 35
Not ifications
dm ac
0000000 7
ĠDepende ncy
ĠC CM
s of
anit ize
ORB ELL
ĠCPU ID
re play
Ġoptim ize
Ġd u
Ġ1 48
Ġsu ggest
ermin es
Ġc losure
69 4
in ci
de pendencies
ĠN IC
ĠDevelo pment
Ġf igure
_ "
ĠEX YNOS
Ġat oi
Ð° ÑĢ
diction ary
ent ly
xFF F
OPEN SSL
od ies
Ġen crypt
Ġ{ :
07 4
Sp awn
Ġm si
DE EP
if rame
Ġph one
AG G
Ġ| \
ĠS pan
INTEN CLR
Hier archy
PA RE
=" <?
Xml Element
integr ation
F STAT
co ordinates
ID L
E GL
Ð°Ð »
F irmware
Re quires
ĠSE G
P rom
ĠB lob
Ġg boolean
39 1
5 33
44 2
t an
ĠO ct
over lap
d na
ll seek
S pring
Ġpotent ial
B ulk
hw mon
Ġp en
ĠS csi
DI ST
q id
and box
onom y
7 50
ĠFail ure
VALUE S
ĠExample s
al ter
c it
ĠL ight
co ders
get Last
B urst
ĠS SH
N dr
05 3
... \
App s
Ġif f
ĠSC U
ĠX XH
Y EAR
E mbed
Ġ* [
] ].
Ġf ft
ro gate
P MSG
Ġi os
06 7
Ġ} };
Ġ***************************************************************************** **/
6 25
hes is
6 54
A FR
Ġx or
Ap pro
V CO
er ver
Ġ/ ********************************
Ġpoint ing
MI ME
=" #
Ġ1 31
ĠSer ializable
SP L
C p
Ġcomb ine
get Content
ĠSER IAL
get Bytes
f u
Cor ner
f ort
Ġh d
Ġsn ippet
w y
BU FS
ĠFace book
fcnt l
dr y
Ġi outil
ĠÐ º
et ing
c data
D ns
Pre set
. ';
Ġsem antics
H ist
OF ST
Ġexpect s
et ched
c ing
ĠRead y
verr un
time d
Ġde pend
Ġgr ab
; /
ĠU SHORT
Ġd jango
Replica Set
ĠOR DER
EU d
C losure
Ġinsert ion
Ph p
l st
ĠByte Buffer
get Parameter
Ġqual ified
ĠSUPP ORT
Ġaccess ible
ro idx
stat fs
Wh ile
env iron
s fr
Z j
ĠSec ure
syn th
Ġjob s
ĠC RTC
ĠA U
Int n
Ġs alt
9 000
Ġne arest
O SE
O UND
^ (
Ġsub stream
resource Groups
rett ify
Ġhas attr
H o
Is Active
ĠP IC
Ġscript s
me ss
>{ @
çĶ¨ æĪ·
D ie
ĠM ultiple
ĠD ID
fo x
gt t
c xx
Ab ility
Ġio addr
P et
in structions
Ġn rf
Med ium
Ġf ence
ĠA rt
DMA MUX
V CPU
Ġdis covery
Ġest imate
Ġ ----
), \
wh itespace
ĠG PI
Ġbinding s
de coded
EXIST S
ud y
Comp any
ĠPar cel
DEC REF
Z h
Cl usters
CN F
Ġst ation
tim ers
Ġ1 52
Reg isters
INITIAL IZED
}) }
Free BSD
Ġder ef
Ġc rypt
Ġp refer
Get ProcAddress
HE LP
Pixel Format
F oreground
Ġde leg
ĠDocument ation
desc s
Ġp ing
ĠF LD
cm n
dr ivers
SM CR
Ġdr bd
44 1
Ġassoci ation
ur bo
Re fer
DB F
Ġvis ibility
O DR
Ġwork around
Ġ---------------------------------------------------------------- ----
88 3
Tri ple
Ġnumber Of
) $
Ġ? ,
rows ers
J T
s ri
Ġde grees
aaaaaaaaaaaaaaaaaaaaaaaaaaaaaaaa aaaaaaaaaaaaaaaaaaaaaaaaaaaaaaaa
A ir
SP ARC
M apped
MIN US
Enum s
Ġ1 45
TRAN SACTION
M z
=" "
get Y
be havior
? ",
Ġtr ust
Ġ4 04
arg ins
@ {
As sets
] ++;
product ion
U U
inter op
E VAL
WR P
åľ °
Ġit r
ĠInst all
4 24
mbo k
CN TR
88 12
'] [$
Record ing
Ġw lan
IN ODE
X aml
enum s
æĹ¶ éĹ´
Ġt aking
28 00
Max Length
Ġmaint ain
e per
enc ies
ert ext
ay er
D em
sw agger
gra al
EXT INT
quir k
ĠProvide s
error Code
getElementsBy TagName
VER TI
Ġm igration
Sk ill
Met er
s int
IC U
g pl
(" *
Sign er
Ġ à¤
') ),
ç» Ħ
p reg
I y
+ -
å§ ĭ
ĠD LL
STOP PED
Ġ% -
pp v
Act ivation
Ġ2 25
Ex clusive
) =
Ġint f
ĠSupport ed
E t
O ffer
Pod s
g op
71 10
r iver
Ġ* **/
ĠZ ip
Ï ħ
GE M
Check sum
/** <
Ġlib raries
Ġt g
Ġal ternative
if r
ĠF ound
ĠIn tern
Ġ2 02
Ġsc r
09 2
Ġic mp
u iv
http Request
Ġreport ing
SU ITE
ĠVis ual
Ġgu ess
ĠUn ix
ir th
ializ ers
To List
STER EO
Ġv dev
head s
A u
nv ram
up dates
ec b
As sessment
V CE
a ic
t mpl
work ing
MB US
ECD HE
ĠW riter
dd b
TRAN SL
ĠQ SPI
qu is
ATION S
æī Ģ
Ġnot es
P ULSE
an ularity
Ġpre view
ĠSD Value
Ġst oring
Ġw or
Ġh ns
" =>
Ġcomp l
PASS WORD
c mpl
contains Key
AIR CR
ĠN X
SEG MENT
que e
ĠEvent s
Ġorg anization
div ide
display Name
emo ji
4 86
ĠS creen
ĠT ex
s mmu
FT P
CM F
cap able
is In
ĠInst ead
P ic
W x
ĠAnnot ation
Ġflat ten
sk i
020 69
BLOCK S
Ġco ef
Ġ! -
ĠAt tr
è¡¨ ç¤º
E SR
Ġsu fficient
79 6
Red uce
c ad
Ġm irror
LIN ES
P LE
Err s
Physical Device
int ent
Ġan onymous
: $
Char acters
Ġpar agraph
{ $
Ġbnx t
TE k
Field Type
OS F
MAR KER
str ncpy
Ġsc anner
Class ification
ins ide
fp ga
Ġj est
Ġpro mpt
ĠH orizontal
B one
**************************************************************************************************************************************************************************************************************************************************************** ****************************************************************************************************************************************************************************************************************************************************************
B OTH
Ġll db
z x
Ġee prom
06 8
DIS CARD
é ħį
Ġm ips
Ġeps ilon
Av g
om as
FRAME BUFFER
Con vention
Ġsepar ated
vert s
sub tract
Ġbucket s
Mouse Event
an alog
ĠI K
Ġbar rier
A q
Ġin jected
= {}
ĠR ST
An g
ORIG IN
] []
Ġinstr ument
Ġre ordered
see also
Report Field
_ '
ick y
war ded
Ġin variant
CTL R
d sc
ĠSU CCESS
Ġin vol
Ġi bm
Ġop acity
Ġx xxx
ĠSV N
Ġin complete
å» º
H G
Sp read
F riend
EE P
Ġco lour
FALL ING
5 34
ĠN OL
Ġand roidx
CRE D
ĠG MAC
èĩ ª
Ġnull able
ĠAn aly
ĠW E
Ġt ape
Sk in
ĠCon version
TH ON
ĠAV ERROR
è ±
co lour
ĠB AR
y res
write Int
ĠR CU
Value Error
Ġcomm unic
check s
posit ive
c er
part itions
PLL M
Ġequal ity
ĠI PC
Q n
SD MMC
ENC ER
" <
ten ant
ĠAl gorithm
ĠIn tent
o sc
Ġ Ø§ÙĦ
ĠNew Populated
ĠTime spec
SCA PE
5 56
ĠC url
Ġ'= ',
fo ob
ID ER
Ġver b
q b
Ġt ap
mt ab
ed ata
cur se
S LOW
q emu
Percent age
5 20
H a
in flate
Version ed
d on
ASS OC
j v
NOTIF ICATION
AB IL
0 55
02 000
P seudo
R y
f db
SL ICE
stit ution
D DA
im mediate
CON STRAINT
tribut ion
KA o
Ġtun er
bar s
pl d
ĠGL ubyte
ĠAL C
Ġexp ansion
74 3
x res
å Ł
De pendent
SE MA
x hr
Y z
c ma
Ġb x
(' --
Ġ/**************** ********
f cf
CHAR ACTER
Ġinter polation
M c
co pi
Ġ4 80
f ps
() \
th ough
vm cs
Ġm secs
Channel Buffer
up d
Bucket s
pret ty
ĠJ o
pref etch
Ġpercent age
C g
p ulumi
le aved
ITER AL
Ġagree ment
k ing
Ġf q
M W
ĠSec ret
JU MP
comp any
Gr ay
ro d
BUL K
exp ire
FFFF FFFF
response s
B enchmark
KEY CTL
ĠP oly
ip se
SIZE OF
4 25
GR PH
08 1
ĠProp Types
DEST ROY
Ġpres ence
46 1
ĠP rev
Ġm ic
Ġaccess or
M l
Des ired
Ġstring Builder
CMD ID
ĠO CTEON
ĠM ost
Le ader
M agic
att ached
Text Box
Ð¸ ÑĤ
Ġr ds
remove Child
und ant
eth ereum
ĠT IO
> (&
Par m
int s
err y
Ġindic ated
TR UST
Ġappear ing
or ient
CC A
zon es
us hes
Ġg st
ll c
b enchmark
ĠS lice
Script Value
Ġsn ap
0000 07
MP P
å¼ Ģ
K R
00000000 000000
C DR
b ounded
ryst al
Ġ655 35
é ĥ
ALR MAR
** )
list eners
Ġdynamic ally
ĠL ower
O CI
Con cat
> ())
ue l
Assign able
coeff s
(' %
Ġaws util
7 10
ĠS ig
15 00
ĠM PT
ĠSemiconduct or
è ·
host s
A sia
Ġ0 444
ĠVER SION
ĠMED IA
} ));
comm erce
r data
COMP OS
CR B
F ooter
DC B
ç¬ ¦
ĠN VM
ip p
l q
ĠGu ide
Ġ1 55
TO K
em ber
ack ed
ĠC I
97 3
Ġke yp
em b
ĠAPI Version
De fs
Ġpri o
LET TER
Ġhas n
ver bs
Persistent Volume
Start up
ode v
Ġ1 54
Ġplay back
Ġne ighbor
ĠW GL
SCHE MA
Q o
ce p
ĠComp letion
C c
q com
AR K
F COE
DO ORBELL
Ġsuc ceed
W ATER
dec ay
6 50
G TEST
FUNCTION S
Ġmat rices
= ','
Adv ance
=" _
0 54
8 64
Ġprint ing
Ġack nowled
ĠS TE
ĠI p
cg i
int on
SH CSR
i wl
5 10
7 01
Se verity
VIR T
ĠF AST
Ġ/**************************************************************************** **/
Ġmat ter
I fc
name spaces
End Of
pre processor
cre ation
I j
ip ment
ne ighbor
Ġoverr idden
ĠRes olve
n w
ID S
ĠO rg
put c
li j
Ã Ł
/ ',
vel l
bu dget
88 2
Ġde letes
ĠF all
sil on
f y
x H
ĠT im
Ġe g
SC E
AAAAAAAAAAAAAAAA AAAAAAAAAAAAAAAA
ĠNOL INT
P rettify
Ġor d
feed back
In jection
itor ies
FREE ZE
ere lease
ĠTr aits
Rout es
ĠIOM UX
App Compat
J h
Ġx d
Reg ions
() >
ĠUpd ates
s amsung
ld o
ĠPHY MOD
Ġtr iggers
ĠThe me
Ġcomp act
Ġmask ed
Ġb pp
ĠMA V
ĠRed is
st ime
ĠJava Script
sc he
v ect
\\ \
Json Object
ĠS afe
5 28
B IOC
.. ]
ToolStrip MenuItem
Ġbit mask
CL AMP
F an
u info
PE M
file Path
Tool Tip
6 56
00 12
00 61
v fe
start Time
Min utes
ar ations
MO B
Ġadd Criterion
to s
Ser vers
Qu eries
Validation Error
Ġ= ================================
num bers
CLK DIV
u dd
de sktop
ne ar
10 23
Ġtyp ing
ĠT LV
($ "
.$ $
FREQU ENCY
Ġd amage
Ã ¥
oun g
Ġimport ed
Ġcontain ers
google api
é ĺ
gl VertexAttrib
ĠM Z
New Source
ache s
warning s
Ġ{ $
Ġ' :'
ĠC am
ĠQ L
it t
éĢ ļ
BOT TOM
d ip
ĠS af
9 34
xffff f
Ġg char
id ers
" ]);
} -
Ġver ification
xxxx xxxx
S AA
at ives
87 3
W z
ĠF inal
ancell ation
l apping
9 11
Ġ0 00
an on
Ġadjust ed
de nd
querySelector All
ĠP MU
M ach
67 5
Sn ippet
ĠBCM LRD
åĪ Ļ
Ġpoint ed
C loser
Re cursive
ĠI WDG
ç ©
INTE GR
erra form
Ġth ermal
S s
c are
H ST
L ittle
Object Reference
M i
de leg
SEQU ENCER
ateg or
Play Fab
ĠD CT
Ġb id
ĠCh ip
Cl s
r as
EN G
IF TYPE
EP OLL
be am
sec utive
Asc ii
Ġn m
v sync
sc if
Ġso on
Comp ilation
host data
ĠL hs
Ġdef ining
Ġf coe
Ġbe haviour
SPE CIES
M isc
Th en
Ġconversion s
ib dev
IF ACE
me ga
ĠP res
Min ute
Ġart ifact
EXT ATTR
Ġprint ln
p seudo
Ġover written
IT R
H yper
ĠTag s
P CC
` );
çĽ ®
ĠSh ader
ld ap
ATTACH MENT
u h
Writ ten
ma ins
Ġpro duced
analy zer
Ġfun ctor
ho od
é »
p ersist
W v
SIOC SIF
c msg
Ġs ix
Ġp ay
ĠD D
æŃ ¤
07 5
Virtual Machine
abb reviated
graal vm
å° ı
ol ated
Ġref count
BM SK
Ġcor rection
ĠL C
---------- \
4 60
ĠM PC
ĠRet ry
ĠT SI
at ches
Ġw ater
I g
K f
get Decl
Z y
Ġm anag
Ġis olate
Par sed
pare n
PACK ED
um l
ĠHttp Response
4 26
p aper
func PC
Ġreg enerated
ch roma
Time Zone
um in
ĠD RA
F AB
move To
sup p
ĠUs ers
Ġc ircuit
P hi
TUN ER
ĠBT N
G SI
f ab
x path
9 49
H RESULT
Ġd ial
: ',
l pc
Present ation
P CL
Ġfield Name
ĠBo th
number Of
Ġtensor flow
re pos
ĠB LA
ins ics
Ġlif ecycle
U l
cm u
collection s
in Array
) "},
Ġmov es
s olve
VO ICE
ARB PROC
l ereal
G AP
Ġas pect
DEV ID
Anim ator
ĠUnicode String
Ġgr ub
fl g
Ġsupport ing
Plain Object
D URATION
Ġs mc
In d
Ġunit test
ĠRemote Exception
Ġc k
Ġw b
og g
ĠGr B
od ate
Ġbu dget
M SS
op enc
åİ ¿
ĠComp arator
=" ",
ĠM utable
represent ed
F MAC
B ATCH
Ġp as
Evalu ate
Ġinit ializes
Ġv ha
ĠEx ecut
B ED
ĠMe asure
Ad s
Ġ:: =
8 19
ĉ ĠĠĠĠĠ
pe ak
part ment
T cp
Ġh ours
Ġp cb
IN I
59 3
indic ator
Ġaffect ed
l ace
dig ital
Ġpc ie
8 89
f ed
Ø ©
En velope
ĠLOC AL
å ¦Ĥ
Ġpro d
Add To
ĠInter val
Ġ REQ
ĠEX TERN
AN ON
Qu aternion
D LE
Ġtrunc ated
Ġtx n
ĠML p
MB X
57 2
IS D
SC ROLL
ĠPR INT
AC P
TR NS
MA VLINK
s Type
ĠN FC
DA I
Ġb ogus
k rb
Mag ick
tr ast
Ġex ceed
ĠI MS
PL ACE
FO REACH
ID IA
TRAN SM
Z C
dh cp
c N
Ġp ersist
get File
ĠB P
DR A
SU CC
ĠA SC
E o
Ã º
SL IM
Pro mpt
CF SR
SA X
card s
ar se
Number Format
time zone
r svd
Ġp wr
Ġ! _
ĠW rap
t re
Ġ2 15
ĠE ither
() ==
EN B
US D
CI SION
j t
Ġt a
Ġwx String
ĠN db
Ġconven ience
close st
c vmx
Re pl
Horizontal PodAutoscaler
Ġnet link
a hash
J z
Ġw pa
Ġl an
P olarity
ĠP refix
acl k
DA IFMT
)} );
coll ision
v sp
Ġcont iguous
x m
ĠH tml
Se quential
C JK
Ġframe buffer
Ġ2 52
ĠC ould
Adapt or
un marshal
COMM IT
Ġĉĉĉĉĉĉĉ Ġ
Ġi pc
weak ListOptions
associ ate
cre dential
m iddleware
I gn
S low
Exp onent
ĠCPU s
E s
Mock ito
open jdk
ĠNO DE
scan f
mp pc
Ġbit cast
+" /
ĠDec imal
Ġname spaces
i om
è® ¤
ĠH V
olar is
ab or
INIT ION
NO SUPPORT
ĠE L
ĠV L
Ġp df
l ba
p np
Ġ{} );
Ð¸ Ð½
TI P
6 05
H DP
Ġsaf ely
buf size
of dm
Alloc ated
ep silon
g v
t as
ĠT OK
Page Token
` ]
W Y
_ :
r ctx
h list
Ø ¹
23 885
IL l
vid ing
ĠD FSDM
buffer ed
C tr
rw lock
Ġ ÑĤ
Ġt ipc
Ġob server
th rottle
ĠP VOID
56 65
ON D
b iz
req s
RA ID
rect angle
H u
th ca
e gress
un load
key ed
4 000000
nc es
Ġident ified
fore ign
$/ ,
quir ks
BR K
L PUART
part icle
Run nable
ĠS MI
ĠString Utils
J A
he dr
EFF ECT
SE P
ĠA nt
ĠH alf
Method Name
Art icle
dev info
R sp
F TR
ĠElastic search
z r
HI DE
ĠC MS
Ġ1 84
85 1
ĠM ON
ĠRet rieves
NO OP
2 000000
UT IME
signal s
Fac ade
co ordinate
ĠResource Manager
Ġtim ers
] )))
Mut ation
report er
3 99
man age
MA Y
7 14
Ġpos ix
To Lower
O paque
u data
G LAPI
tm r
S uspend
Re load
Ġ(( !
Ġh uart
u code
get First
OFF LOAD
FR AM
key Code
Ġ que
Ġtr uncate
or ian
ag gregate
GV k
p sc
Ġ1 91
content Type
Ġde crement
ĠT REE
get Status
Ġfor ced
Ġb alance
Pro files
At tempt
Big Integer
Ġ' ='
LI BR
An alog
K L
ĠStr ide
B V
Ġc rop
00 24
ME AS
Ġintegr ation
cpu freq
F ar
% \
Ġo ffer
IComp onent
ĠP PS
ĠT L
ĠLOG GER
Client Config
Ġtopo logy
w asm
config urable
Th umb
06 1
One Of
Export er
Cho oser
MP DU
Set Name
Ġre cogn
r pm
write Only
ded uction
Ġperform ing
w av
() *
Ġsup press
re no
] ){
qu eries
7 30
FOLDER ID
prec ation
p referred
get s
AN TI
decl aration
g ency
Ġme ss
Ġh ar
ĠS SC
87 2
' <
D PLL
SA MP
ĠMo zilla
>>>> >>>>
Ġv oice
sd vo
Ġload s
ĠIss ue
F loor
Ġin b
mp r
Ġident ifiers
ĠC r
ĠP ool
<< "
Vector s
g ic
Ġm ii
Dot Net
Ġcover ed
Cl inton
p ulse
Ã ½
in cr
Ġun changed
n pos
temp erature
D HE
ĠF EC
Ġsn mp
comp iled
12 80
Work ing
et o
ins pect
it v
LP EN
gr ab
Par agraph
li able
ĠPh ysical
ST AR
Big Endian
K i
ef use
st ype
Ġ1 95
IP ROC
Ġde letion
åĮ ĸ
INSTRU CTION
Token Type
G AME
Ġĉĉĉĉĉĉĉ ĠĠ
69 8
ri o
xd p
Exp anded
illary Clinton
æ Ħ
Ġn k
ĠD OC
parse Float
Mg mt
brc mf
d jango
Ġ2 27
æĮ ĩ
S r
Ġres ol
ĠĠĠĠĠĠĠĠĠĠ Ċ
` ](
Th ere
AT ES
arg o
init call
Ġro bot
pie ce
SIL ON
Den ied
Intr insic
t stamp
line To
ĠPipe line
ĠD iagnostic
Ġ'" '
Ġv node
T ake
ĠM IS
pm ic
hold ers
Multip ly
Ġlif etime
Ġp ure
ir med
tribut or
S AL
pp s
ffect ed
ĠIn s
Ġw ifi
S vg
Ġconfig urations
00 30
Ġ& $
DE B
ĠErr ors
ss c
O Auth
me mo
Ġs pell
Ġcon cept
ind x
get Target
evalu ator
Ġp u
ĠEN UM
Ġleg al
ĠS lot
sp ath
PRINT K
d ual
Ġv j
prop Dict
ĠM PP
m fd
L it
get Next
Ġalloc ations
MAIL BOX
Ġwh atever
ĠT ake
Ġgr ay
T TY
From File
ĠS ite
E a
ĠA K
EN CRYPTION
HO UR
ĠDeploy ment
Pro cedure
Dis connect
S ep
qu iet
data Table
L l
19 99
Static ArrArr
ĠAli as
Ap pearance
ĠDH CP
PT B
OP TI
s ax
Tick et
Ġmix er
ffff ffffff
fin ally
é ģ
L atest
_ +
ĠHel p
Ġf dt
ic ult
Ġname of
AC COUNT
P CH
M b
V ED
Ġ1 82
Error Response
sk cipher
ivers al
C UDA
E GER
ACTIV ITY
------+ ------+
link age
ex ynos
ĠCon straint
Capt ion
Editor Browsable
Ġ*/ ;
Ġh list
Ġm otion
TIF ICATE
ord inal
mod ifiers
T MR
ĉĉ ĠĠ
Ġsm allest
Ġg fx
s amp
GO OD
Ġcollection s
} _
Get Data
Ġq eth
user Agent
p sy
ĠT ile
Ġu d
_ ));
BU IL
U H
ĠF re
ĠG E
u V
sp ro
copi ed
Ġi ore
Ġx hci
Ġf acet
Ġ// ========================================================
Ġatt ack
PEN DED
m buf
Ġw allet
Ġsil k
dispatch er
O sc
ĠUn der
USART x
Ġp iece
77 1
amp er
Ġs ays
ĠSIG NAL
F ENCE
Ġ/ \
ENO SPC
ĠSK M
ĠP TE
Ġse ar
Entity Type
T N
PHYS ICAL
R n
Ġ" "},
SUM ER
Ġqu ad
Enumer ation
core v
le ak
Ġ0 3
4 15
() /
)) [
ĠState ment
CN IC
Filter ed
ĠHead ers
Ġn op
ĠN I
ĠEn abled
t con
Ġun checked
LL VM
ĠT ermin
G HI
ĠNE W
ĠExp and
ĠMod ified
Ġrelation ship
tr action
UL ong
Less Than
pattern s
m oment
Î º
Ġstring Len
44 30
A mb
Ġsh uffle
Ġ1 42
57 3
BUFFER S
ĠB UF
Ġt ps
pt ype
system s
8020 69
ĠC PF
X HR
FR F
b son
Field Number
ABIL ITIES
Ġinvalid Params
fin der
J a
ar ded
47 5
ĠDet ermines
Ġon line
SH T
Ġstr to
V FS
Ġde structor
Ġbin der
reg val
ĠIN CLU
L etter
con str
s pell
face book
CTR LA
Ġp eek
ĠA TC
p fc
Ġ# %
br k
f coe
PR M
d ib
Ġin p
ĠDMA C
Ġrout es
ĠM SB
ĠAT MEL
O OB
ĠH old
be g
Ġpl aces
J g
Ġf x
IP R
And Set
ãĤ ¹
ĠL SB
Ġan s
rl imit
ĠE qu
Core Clock
z ap
h anced
one Level
L H
Ġact ivated
pp p
ĠS EM
Clip board
Ġd ce
D roid
(" \\
Ġget Type
GENER ATED
Ġ( ))
ĠM ov
Model Index
win rt
RS VD
n lp
sock addr
Ġ1 43
Ġpath name
45 8
iagnost ics
Ġj it
ERROR S
Ġpotent ially
ĠMarshal JSON
Ġp ressed
Q A
no ther
product s
ĠNot es
Ġstr chr
ĠE ric
Ġar ithmetic
C AMELLIA
d D
St and
Ġrad ix
49 4
h ours
ime d
97 8
r bd
Ġtrack er
f A
åĴ Į
de tected
ĠM F
d pll
y mm
; &
67 8
46 2
å ķ
Ġ' ');
bas ename
DI ER
RE LOAD
A MPLE
ĠString Buffer
sw e
Ġbuild s
Ġbc ml
rq st
b anner
t st
Parameter ized
ĠMac ros
L PM
QUFD QT
er ing
ĠSl ave
Mill iseconds
rt imer
su fficient
head ing
Compat ible
5 32
G c
S MARTCARD
ĠU ID
set Visible
Ġmultip lier
S lots
Ġis Valid
us ize
ip edia
ĠV ert
Ġin finite
åħ ³
G t
R ID
ĠComp osite
er vice
dr p
CN TRL
EXP AND
pr v
ur s
load u
Code d
get Size
B H
Ġa fs
Ù Ĥ
Ġs olve
Ġ(( (__
Ġloop back
vx ge
9 01
tx d
iop ort
al ready
([ [
-- */
p sta
is co
u ches
} })
ol en
TIOC PKT
5 37
ĠY AML
Ġsd hci
G id
ĠD ST
DC S
ĠNE ON
NOP M
R Y
ĠS oft
Of Type
Up dater
ĠP J
g sl
FF T
Ġno qa
>> ,
Unix Nano
AL IVE
Ø ´
Pro vide
ĠT UN
13 94
wire Type
Ġde gree
Ġbit field
Ġ1 86
Ġr id
/ +
da o
Ġaws err
Normal ize
M usic
ĠA W
Return Value
ĠUP DATE
int StringLen
ve cs
}}, {
ĠSCR IPT
at mel
Subject AccessReview
07 6
Ġo ss
al a
B KP
çĶ Ł
Ġp ulumi
ĠTest ing
ĠD one
De crypt
| "
567 8
New Request
ĠIN S
ab out
CPU ID
Fl ip
M aint
Ġe lems
ĠL GPL
Ġd sa
ĠH H
st ab
st ree
ĠI OP
pur ge
7 03
ut c
G IC
åı £
ĠTR IG
ĠMIC RO
Ġpar ses
ing Mode
; ;
par sing
Call Option
PLL CFGR
Contract s
j dt
LI CT
Ġĉĉĉĉĉĉĉĉ ĉĉĉĉ
ãĥ «
Ġmedi um
Ġcon struction
Ġdisable s
re striction
V V
MSI X
Sub string
Ġgl VertexAttrib
è °
(" "),
SC FGR
47 2
Ġb enchmark
F acet
è Ĭ
Ġ& )
4 39
Context Menu
ĠI OC
Ġv e
Roll back
{{ .*}}
Ġd am
4 64
" }}
d z
; ","
Ġdata Type
att ack
START ED
IN CREMENT
Ġ[ ..]
iph ertext
Ġshow s
ĠWh ere
D PHY
56 880
Client s
l abs
_ #
oint s
", ["
u ap
SYM LINK
Ġsome times
al m
04 38
L p
Gu ide
s ata
ĠL U
ouse l
è¯ ¥
F t
ĠW DT
ob server
Z l
Ġp ulse
ĠF irmware
ĠSPE ED
} ";
oper ands
ch ans
pl en
). \
Ġtest Get
Î ¬
in coming
set attr
a arch
ens ible
ĠWh ite
Hal Data
ä» £
PI E
xFFFFFFFF L
ĠUnity Engine
Ġc ategories
cc m
DIR TY
ir a
67 2
BO UN
c ancellationToken
s aa
ĠRE AL
Ġ% +
Service Name
PULL UP
cover age
5 08
Ġex ceeds
ĠDevelo per
Ġcl usters
>( *
Unit Test
ACCE L
Ġstruct s
ĠCRE ATE
Ġ1 89
å½ ķ
No Such
M aybe
Ġt or
Ġg db
Q m
ĠCh unk
ĠT ok
v nic
ĠPO SIX
Ġ1 64
Ġcon trollers
ĠS DRAM
re ports
ĠM SP
Ġget Default
E i
re x
ĠEn coder
ex m
field Num
G ROUND
U FF
W CD
ĠU rl
tri angle
jac ent
Ġdim s
H SYNC
Ġr dma
65 8
mer ged
AC S
å® ŀ
Ġ(( $
hw if
... ");
id a
ĠBack up
Ġd ib
af u
iser fs
Ġr aised
SE ED
ĠWh at
ĠAl ert
CON SUMER
4 38
e at
call able
token izer
Ġto do
"], ["
ĠB LK
IP SEC
âĶĢâĶĢâĶĢâĶĢ âĶĢâĶĢâĶĢâĶĢ
Ġ1 88
one of
Ex c
Ġm ass
Ġclose s
:: ::
éľĢ è¦ģ
U CODE
ptr s
ALGOR ITH
get As
L ITERAL
p State
Format ted
iet f
ĠA SIO
P v
Ð°Ð ²
Program Uniform
U K
ĠIO CTL
Std err
DEF ER
p ivot
if or
" ----------\
S AME
Ġu short
LOG IN
rec ycle
IP Address
STD METHODCALLTYPE
Ġevalu ated
ĠIf c
cv p
N Q
PRE EMP
"> '
Raw SockaddrAny
D PM
E cho
Ġin clusive
ĠH DA
Owner Id
Prototype Of
ĠP o
Ġis a
dm x
Ġn py
Ġextract ed
k hz
Service Client
Ġ(( (((
74 83
tr ansparent
N ear
ĠAv ailable
Ġsy mbolic
Ġpro totypes
4 18
Ġ[ $
Ġ ell
xD QUF
Play back
Ġv fs
Spec s
O z
ĠINT EGER
HasColumn Type
int ptr
pcie g
") [
UP D
conn track
Ġp ts
ac o
ĠB AD
Ġadvert ising
embed ding
Ġt enant
Ġconfig urable
Sn ap
6 24
() )));
Ġretrie ves
ĠS IGN
Ġconcat en
} '),
P ulse
bf ad
01 234
S il
p st
ç ķ
gl m
pet ra
Ġmm SPI
pol ator
Ġneg ot
th ird
ĠL azy
__ ;
s ir
ĠOP CODE
net link
Att ached
Ġp ayment
two Levels
Ġout going
Ġvisit ed
06 00
Ġmm u
st ereo
Ġt k
MP S
ĠP EM
ĠSc ene
99 3
N ever
T olerance
ĠC ert
h spi
V pc
Ġro unded
VO KE
ser io
(/ ^
RECE IVE
74 1
ĠComp ile
Bl ur
g ss
ref lection
cess or
ut or
ĠG D
W f
Ġ1 77
fl ux
IZ ONT
K X
if a
Val s
DI E
S olid
RE USE
07 3
will Return
Ġ16 8
×ķ ×
Ġthe ta
act iv
åŃĹ æ®µ
DO XYGEN
Security Policy
agent a
EX C
ĠZ Y
su ch
Ġ_ $
Ġun compressed
sh ips
UB I
ĠD rag
s cores
72 19
time line
ĠBu iltin
Ġsect ors
__ ));
p olicies
Response Writer
NAME D
Dead line
tBQUN BO
Ġc types
E SC
I rq
ref cnt
ĠPFNGL VERTEXATTRIB
s db
HER IT
Access Token
Ġ16 9
Ġav ailability
METR IC
Field Info
iter ations
Non User
Ġinherit ed
hemer al
Edit able
rottl ing
DECI MAL
ĠM anaged
59 1
ĠP aint
ĠI lluminate
On line
ĠLE FT
Base URI
ok er
Ġe fi
Ġmis represented
d ur
ADD ING
ĠPROTO BUF
m igration
u u
ĠS ound
ĠTime val
Volume s
ĠM ed
m ip
Ġ{ ...
ĠMLX SW
An onymous
SW I
J oystick
(" @
TIM x
strl cpy
Ġde tach
Ġgo al
Ġre member
he at
Ġs aving
Ġpre pared
sy ms
Ġbreak point
ĠRT W
ĠCode c
7 80
RAN D
ĠXK c
Ġv if
Ġiter ators
W G
ĠB RANCH
Ġsort ing
c pt
Ġa ge
Normal ized
Ġp olarity
m log
Ġtrack s
SD P
Ġst amp
S LI
84 1
Ġsynchron ization
'] :
Ġpl t
C op
st orm
Ġ2 32
Ġselect ors
Ġack nowledge
86 2
ĠCon current
Has Prefix
Ġ1 41
IG A
(' ../../
ĠN C
Ġlic ensing
r ich
n ss
ABORT ED
h yp
Ġg arbage
w nd
IZONT AL
ĠD st
org anization
Ġr ts
ist ream
lv ds
inv ocation
S MS
é Ľ
RT N
J ax
Ġoptim izer
k in
6 09
length s
NO C
Volume Attachment
CT URE
8 36
Ġim ag
Compact TextString
Ġf close
iss a
Ġgu ide
AP ER
Ġwas m
F aces
ak ed
A sp
n ecessary
Ġmod ifications
ordin ator
ac om
to a
Replace ment
associ ation
ä¾ ĭ
L MI
65 2
P g
ĠTH READ
std call
Ġtrans formed
Ġdec ision
ID ENTIFIER
% .
WEB PACK
Ñ İ
ĠD IR
Ġc anceled
Ġdat ap
CL AS
Context s
el en
pci dev
æķ Ī
r ace
Check point
d ro
H UP
Ġin o
__ ()
ĠL DAP
Ġlo t
B h
ĠCh rist
R CR
h or
SP M
IOMUX C
P wr
ĠRe pository
H AND
ip ro
lic as
Tb msemse
w ps
CAP ABILITIES
config ured
Bus iness
Ġmultip lication
Ġ1 70
Per form
ĠImGui Window
Could n
g reater
RO WS
04 40
Mod ification
] &
train ed
optim ize
(" ")
start s
ĠSMB US
cycl er
AC ING
: {},
ĠMy SQL
an izations
Ġident ifies
Ġp lug
Vo Collection
ĠElement s
hu ge
sub net
end ant
T IC
PROCESS OR
Ġdiag onal
w xyz
get Max
End Time
st l
080 8
I AR
ot ype
ther e
Ġ*/ )
get Field
ĠI G
GU AGE
get Location
Ġfunction al
Sp aces
Î ¯
Ġsub net
br ush
ĠTH REE
function al
min ute
key down
9 03
d os
Ġstart Time
S AN
Ġa ch
Float ing
Ġ -------
ĠM AT
cn tr
ĠREAD ME
ctr ine
Ġwe bs
open ed
sn ippet
mem base
i Param
Ġmin ute
IC C
TH AT
Text ures
Ġtri e
Cal culate
E ar
UPLE X
ĠPro gress
ĠIN FO
BQU Ms
x sd
Ġapp s
aw k
75 2
ĠA void
Ġ2 53
28 80
400 474
V r
fc port
ĠÐ ·
Property Value
" });
Key Event
is ample
Sh apes
co alesce
Ġ1 00000
Ġn avigation
86 1
ĠPIX EL
ĠPass word
Decor ator
RE MOV
Ġs is
Ñ Ħ
Ġimplement ing
ĠM SM
L x
alanc ing
b cs
Y Z
D bg
Cl i
ĠQ List
Ġmm PA
Account Id
M IP
Ġĉ ĠĠĠĠĠĠĠĠĠĠĠĠĠĠĠ
66 597
ĠÐ ¸
ĠV R
t len
Ġ1 53
06 3
C tor
D ocker
6 36
567 0
n am
hi er
Document s
sc m
fun ctor
i err
Ġ' &#
ser ialized
SP LL
Ġcons ists
ĠWrit ten
655 35
6 04
Ġhyp re
ECD H
ul s
Quick Fix
65 3
ĠSe lector
- \\
ĠDO UBLE
ĠAct ual
H andshake
Pro j
UN ITS
?; ?
08 3
ĠQ P
user data
Attribute Value
ĠW CD
M alloc
it ors
es as
C rypt
ĠN v
4 34
b an
Ġgroup Id
à¤ ¾
uc hed
Ġk o
Ġdif fer
p ure
l apped
j boss
Mis match
Ġex pires
Write Byte
Ġback ing
ãģ ª
Ġ angular
ĠT Value
equals IgnoreCase
B SRR
ĠL ex
Ġresp on
ĠM ass
der eq
G W
Ġw ildcard
Ġ2 05
G uest
ĠD OT
ve al
B id
F LO
5 15
; '
T bl
4 99
@ +
D l
Ġn av
ĠPRO T
% "
p Z
Ġpro viding
SUFF IX
tc am
S tereo
Ġc sr
Ġal gorithms
ĠP MC
ĠS yn
ĠP CH
R HS
Ġin active
ĠĠĠĠĠĠĠĠ ĠĊ
ĠD istance
CK EDITOR
ĠH S
Coeff s
V g
ĠPart ition
ï¿½ï¿½ï¿½ï¿½ï¿½ï¿½ï¿½ï¿½ ï¿½ï¿½ï¿½ï¿½ï¿½ï¿½ï¿½ï¿½
CON VERT
ĠC Base
ĠG TK
ãģ §
åĲ Ī
ĠX MC
qu id
dl g
ĠVariable s
p Device
Ġassert ions
Ġmin imal
ĠInput s
M idi
ĠR tl
m igrate
l dr
ing Update
ĠCall er
ST YPE
F SR
5 18
Bounding Box
No ise
D ark
an i
000000 3
," ./
d hd
Ġway s
Debugger NonUser
Ġun d
ĠSC AL
X MIT
h x
() ");
ĠCOM PI
n ounce
Ġun ary
Inter preter
ĠSpec ific
ell ig
WAR F
æ¨ ¡
ĠM ME
Error Kind
c ab
go al
ĠImplement s
", [
66 1
C k
Ġseparate ly
HY PRE
Ġplace ment
ĠFOR MAT
5 16
Ġ1 74
ĠW r
Array Type
v ue
ch nl
ĠR t
Ġin cr
THER MAL
art ifact
Ġrequire ment
c M
Pro cessed
go ff
Ġstr dup
ĠDes ign
Ver ifier
Ġ***************** **/
{ '
(( _
DIS PATCH
ot ing
Ù ĥ
Ġmethod Name
Ġsp acing
ĠM agento
ĠB er
Ġnon zero
W izard
Ġw o
RD WR
Ġtermin ation
ðĲ Ĳ
ĠWrit es
HW ND
EN E
Empty String
te ms
n as
:" â
Ġ åĪ
ĠQ ED
å½ ĵ
Ġh cl
100 4
multip lier
Ġ---------------------------------------------------------------- ----------
m sp
F y
Ġs anity
ĠSmall Vector
Ter ms
MAN Y
( ',
war f
ĠF un
ĠFR AME
r sb
Ġag g
period ic
ãģ Į
Ġre mains
ĠĠĠĠĠĠĠĠĠĠĠĠĠĠĠĠĠĠĠĠĠĠĠĠĠĠĠĠĠĠĠĠĠĠĠĠĠĠĠĠ ĠĊ
as hed
Re play
stanti ation
Ġshr ink
L d
J u
ĠF MPI
ĠVar iant
8 28
pt ime
Ġel im
mar s
co ff
ĠMarshal To
Ġtemp or
ä» »
ĠT cl
In stant
çľ ģ
AC LK
adv ise
Key Id
Ġno op
Ġexp lode
Ġ64 0
NOT ICE
st b
Ġpr incipal
ĠL S
G pu
Gr pc
k mp
Ġw g
Format ting
ĠB and
éĢ ī
k kit
ĠT ILE
Ġshift ed
ad m
100 01
Ġg ensupport
SG I
hl js
dm abuf
Ver ification
Dll Import
cre ator
nx t
P LA
tr c
ĠMY SQL
client data
ĠSIS LANDS
CLK EN
" &
Ġl ab
Ġa hc
Ġv ld
D n
Ġp q
Tr uth
Ġh ence
e ap
Big Decimal
p Dst
Ġa dev
Ġ` &
gg ested
Ġhton l
l anguages
Ġad j
Ġquot ed
6 18
ĠH LS
Ġat l
J um
Temp erature
Ġ0 4
ft nlen
08 2
Ġref lection
Ġle ader
D TR
ate ly
get B
-------- */
8 14
Q q
Th ing
Ġ( [
ĠDis patch
ĠA ML
Red uc
ĠC ATCH
us leep
Is True
pc ap
6 03
08 18
Ġsocket s
h pd
i ad
Ġin form
ĠL in
L a
Info f
ĠSYS CTL
" _
Err Invalid
Multip lier
pm i
ĠJO IN
FI RE
M iddle
le ader
ORT EX
ose conds
um ulative
PROPER TIES
5 24
D ual
DH CP
Ġfeed back
Ġsatisf y
av atar
E lf
M ailbox
R z
Ġx j
E CP
Ġ'/ ')
bank s
sh apes
Ġc as
Ġtransfer red
ac cur
ĠT yp
mac ros
In coming
Ġlo mbok
Al g
compare To
Y O
un less
En g
ĠD SA
WI DE
Ġvariant s
is ions
Ġpre dict
Ġj ffs
\", \
ĠVAR I
Font Size
b ounce
D NA
Ġv ers
Ġre dis
| \\
lan es
7 09
C linical
get Length
ĠJ ohn
in ic
ĠSQL ite
ac s
Ġ------------------------------------------------ ------------*/
Greater Than
n avigation
if e
"], "
TI PC
ignore d
5 26
ĠPred icate
Ġoper ate
__ ",
H K
ĠD ot
ĠATTR IB
O c
En crypted
E IM
Ġex posed
AC ED
Dif ference
ĺ ¼
Ġl it
GL X
TRUNC ATE
m z
Ġ16 5
Dash board
ĠNT STATUS
Ġsc enario
b en
ĠAD V
r ating
Ġse verity
add Action
CAM ERA
bo b
irc um
co d
Ġr svd
Ġmach ines
O MP
8 22
ĠI TS
AUD IT
9 10
back ward
R MP
66 3
Ġs ingleton
Ġa ir
priv ile
Ġ2 35
åº Ķ
B PP
assert ion
G HZ
Ġv port
Ġab c
Ġle ase
ãĤ ¤
h ighest
" #
pp id
Test Suite
ĠUN IT
al ipay
esc ale
greg ated
in herits
Ġquant ity
ĠPRE FIX
ĠP anel
Ġc aching
ĠF LOW
Not ifier
Ġwait For
C ron
ĠF AT
gpi od
WR APP
SL T
N i
ĠS ynchron
ĠM CS
et ag
tt m
g port
le ading
ET TE
D FS
os b
Line Number
d cache
sp read
SYS CTL
Execut able
plan ation
Property Changed
åĬ Ł
Ġch at
Ð ¶
Ġch k
ĠT yped
47 8
Ġcs io
C ampaign
Request Builder
Ġover head
mpl s
æľ Ī
cred its
éĿ ¢
ff fe
Ġwire type
Ġchain ed
ĠS SI
IL ayout
Comp iled
}) ),
BUF SIZE
W EP
e ck
ĠV IA
ĠD iff
ZZ ZZ
Service Account
][ "
ĠJ oin
ĠDec re
F m
sp m
c rl
ĠIRQ F
Z M
ĠCUR LOPT
set Data
intel lij
Ġ/* ------------------------------------------------
Ġnew er
istr ator
M ay
ens a
ri id
J i
ends With
ĠE very
> .</
ur g
ĠP Q
H CLK
Ġ" ðŁ
Ġ1 87
ch s
Ġtrans mitted
ĠDe coder
RESOURCE S
G esture
SR GB
uv wxyz
Measure ment
)) ){
sub device
| =
IX GBE
Ġare na
Ġsw ig
VERT ICAL
L CR
c ube
co al
IO P
Ġaccount s
IL LEGAL
Flag Set
67 0
RD S
5 80
m delay
: .
ĠT MP
Ġ2 44
ĠAl pha
Ins ensitive
Y S
Byte String
lu c
ap ing
Dec ision
æĺ¯ åĲ¦
DC y
an iel
re calc
LA P
bit field
äº º
ĠC oin
Ġ2 03
rap hs
Ġscal a
TOG GLE
TX E
Ġcomp ilers
re boot
net beans
PRE DIV
ĠPAR AMETER
H EDLEY
h uff
PC NT
SL V
ines is
Track s
> ]
un s
AT YPE
]) ),
Base Type
del ivery
L UN
T l
EXEC UTE
$ ",
J et
Ġenum erable
Ġne ither
Ġmm DCP
L SI
Ġstring ify
Ġb k
Set Error
y uv
O SD
RESOL UTION
Ġpro ducer
0101 0101
GAM MA
3 89
Ġcp umask
Ġsv g
`` .
ĠSwagger Doc
W IND
Ġd si
ĠQ Variant
X O
E ll
lin eno
Activity Streams
k time
Ġinter sect
WireFormat Lite
ĠR ATE
set Color
Ġinter preter
START UP
IV ED
6 27
F ri
T ThostFtdc
err p
13 00
instr ument
ÑĢ Ðµ
xff fd
m out
ĠSupport ByVersion
ĀĀĀĀĀĀĀĀĀĀĀĀĀĀĀĀĀĀĀĀĀĀĀĀĀĀĀĀĀĀĀĀ ĀĀĀĀĀĀĀĀĀĀĀĀĀĀĀĀĀĀĀĀĀĀĀĀĀĀĀĀĀĀĀĀ
B GR
Ġcon vention
read b
m ass
ĠL AN
Type Enum
Break point
Ġm q
ĠString s
Ġun link
Exp ired
edit able
next Sibling
ĠSystem CoreClock
ail y
Ġmonth s
Text View
Ġio read
Pr ime
decl are
index er
contr ib
ĠA BI
ON GL
SIOC SI
Div ider
el i
return Value
PD M
ar ith
sp a
69 2
Ġmark s
E lapsed
Ġ$ $
Ġch ips
Ġk object
MAN AGE
m ongo
Ġany one
ç Ļ
tr ansp
ĠN LA
BA UD
Ġcheck er
BE FORE
Ġ1 58
Ġi err
F ld
4 33
6 20
Ġg ss
Resource Name
Comp osition
API Version
Ġre duced
Ġmd io
Class ifier
UL D
Ġ( `
I pv
off line
Ġ( <
Ġl f
P b
è± ¡
PREF ETCH
åĵ ģ
N ACK
ĠM age
Ġoct eon
ç¨ ĭ
d td
X k
Ġf trace
REG ULATOR
Ġw q
iv ar
Z I
Ġb tc
ĠI FF
V Y
ac ct
Example s
N ID
ĠJ NI
ĠRes ources
Ġconvert ing
d atab
Q DL
EF USE
ĠM CD
: +
Ġdec ide
Status OK
ST K
pro ducer
unlock ed
Un pack
rt d
?[ ?
ĠSRB M
O i
7 19
Ġat tention
red hat
d G
................ ................
ĠK B
Ġx f
Z STD
TR IM
Ġsk in
Ġissu ed
Ġre corded
g pll
Ġ* ++
m tr
Ġ ONE
ĠI tems
T im
interop Require
g ps
Click Listener
lic ated
Scroll bar
D s
Ġ'" ',
c ac
o am
Ġ/**************** ****
ĠS urface
ĠI AM
Ins pector
ĠT encent
ĠB Z
ĠKey s
ĠReg istry
O CR
Ġpre par
Ġc u
ĠM issing
ob tain
ĠTo String
pcm cia
ĠDel ta
semseQ wmsemse
Ġres idual
Ġ* ),
Ġext ents
Ġ` `,
ĠP DC
æ Ļ
N g
ĠP V
j r
ĠA rm
he artbeat
A AC
d data
IM C
Ġspec s
TP S
act ivated
ĠS ock
ron o
ĠO PER
text Content
Render Target
pr Type
Ġf abs
rad ix
PE C
N W
s st
w mb
ĠE mail
ĠPr imitive
s vm
Ġ( ).
5 19
ĠD istribution
Signing Request
h ose
ro bot
ĠL J
Ġg or
ĠIn gress
Ġtrans lated
AP S
ĠOpt im
Ġg ui
80 21
Ġpartic ip
get Config
Invalid ate
quir y
re cted
}} }
G auge
ro ce
Ġde leting
Cod er
] '
Ġst rength
AB ASE
mask z
Ġenter ed
Ġ ingress
APIC ALL
t ape
v ote
Ġb ypass
ĠN ested
Ġr aster
sub set
è¿ Ļ
lo st
LIBR ARY
ĠU ErrorCode
Ġiore map
H r
] ")
Interop Services
ĠRe fer
Inter section
d j
ARCH IVE
áĥ Ķ
pos ing
compress or
U DR
G i
s iz
Å ¾
ĠS CLK
Ġtrans ient
ĠEvent Args
I c
+ ",
Ġj int
ĠF X
num s
ame s
ĠM MMM
Ġdist ingu
ĠMess ages
Com ma
Log Level
L IF
rt t
{} ",
Ġdoub lereal
ID ENTITY
ĠRead Only
GU ARD
Ġco res
pre pend
Ġ/**************************************************************************** *
Ġ' ^
Ġx c
Ġg ather
GL SL
ĠLook s
letable Future
un a
à «
Ġde que
=/ ^
Q y
to Int
US hort
49 0
31 00
KEY BOARD
ĠS SP
Section s
EX CHANGE
comp osition
49 3
sy sc
LO UT
Ġy mm
Ġ1 73
All Types
Ġst ops
Ġde crypt
d cc
ĠD VB
Ġ2 16
ĠK S
ĠIter able
éĥ ¨
Ġ(" %
u Param
ĠSN MP
() ",
Ġi mmutable
ĠQ COMPARE
he m
Ġf aces
Iss uer
quant ity
f ir
ro be
ĠST BTT
V id
c il
lear n
ĠBO ARD
ĠN PC
Ġdist inct
5 21
TYPE DEF
COMPRES SION
Re cent
lo om
ĠC SV
Ġf requ
Ġ2 10
Ġpro ceed
pe ction
n mi
Q i
INTER L
ĠA ck
Ġsl ider
G amma
c pr
Data Provider
ĠAl ign
Ġpart itions
p ct
. ")]
PI P
Ġcount ing
L BN
Ġ1 85
APP RO
ĠIS A
ĠM ach
ur bs
ĠPro tection
St a
add Child
fh ir
Ġ1 97
ãģ ¯
Ġjet brains
ĠV S
gress ive
COMPOS ITE
table Name
sup press
sh im
cr ash
EA CH
c ip
Ġ energy
5 77
6 12
iver se
)? (
W OW
Ġch ance
ĠH istory
new Instance
ĠBC MA
B x
s uspended
de ath
6 08
ch dir
ject ory
eg a
j cstress
interpret ed
Ġimpro ve
Tr ain
G Dr
ĠPa ul
COMP RESS
RELE SS
De compiler
ĠC AI
lo dash
ch arg
SC gmsemse
H ard
R IC
//// //
Get Instance
1234 5
Ġa q
set key
Counter s
Configure Await
gr ap
ST MT
0000 05
Ġx p
trigger ed
Ġbuf size
ĠUINT N
L GPL
Ġ*) "
ab ove
Ġsup posed
protocol s
T f
S ENS
ĠRe quires
MB ean
BUCK ET
07 1
Ġre moval
com ma
Ġsl ide
tr ust
UT CL
ĠEx act
FR C
Ġart icle
Ġ rom
æı Ĳ
O Yh
mp ort
RM SK
F CC
FI B
Ġfont s
Is NotNull
OC SP
Ġform ula
Sw ing
] ='
F ade
() ?
same Value
Ġpar a
Resource Group
SPI R
vx lan
ĠixD PM
Invok er
to List
Ġresource Culture
ĠUtil ity
TH REE
pre Index
Suc ceeded
C GROUP
ĠP DF
ul ates
{} ).
ç© º
j h
l id
xF UL
ann ess
ĠIN C
Ġre play
ĠGL short
C URL
PER TY
Ġpre Index
Ġexp iration
toHave Been
am i
float ing
[^ \
H t
oo led
so lo
b etween
em ap
get Index
Response Unmarshaller
ĠR M
read ing
Metric Status
Absolute Path
ĠB X
Ġ` -
ĠJ SC
ov ld
Ġ8 192
Ġresp ond
Support ByVersion
DE CODER
he ast
desc riptors
embed ded
ĠRef resh
G m
se y
ĠF n
Ġinter ceptor
Ġparent s
Ġ[ (
ĠReal Type
ac a
stride s
p assed
Pro tected
49 5
ĠCons ume
Ġ2 34
Ġs st
ĠN UL
D IF
x g
IV PROC
PAN EL
d amage
Package Name
v bus
min utes
ĠRece ived
ONGL ONG
t urb
Ġre ly
ul ary
sub title
t rees
Ġre map
SS C
Msp Init
q up
Ġend ing
ĠIN LINE
Ġc ircular
ĠL DO
FS L
lo od
æĢ ģ
Pre vent
pri or
CL S
mc u
Ġe mitted
(_ ,
Ġrecord ing
][ $
DA O
=-=-=-=- =-=-=-=-
ic ated
Ġte ams
S ess
str casecmp
Ġsign ing
ĠE ven
ick s
replace ment
": {
Ġeas ier
14 00
Ġprevent s
ĠX F
B ORDER
I AN
", !
g cm
xx p
45 2
Scroll Bar
to c
E urope
T ier
err code
ĠE MU
ĠR OR
ph oto
ĠPartial Eq
" -
49 8
67 1
ĠWh ile
Ġaccur acy
sn mp
éĩ į
N Z
Te le
Ġimplicit ly
Ġr isk
7 08
MEMBER SHIP
ĠW D
C a
ĠT OR
RD A
CL G
code gen
([ ^
efficient s
jet brains
u access
SE rror
Multi TexCoord
Ġm andatory
ĠG ot
ĠAn imation
REG ISTR
Ġ655 36
xffffff ffffffffff
arn ess
Ø ®
ĠTime Unit
ĠWIN DO
ĠIntern ational
E rase
? ]?
ĠAl ternatively
ĠA z
ĠM utex
HID DEN
ĠPAL MAS
ALLOC ATION
D Z
ĠNo Such
oper ators
7 60
Pro vision
Ġtick start
ro k
ĠC CR
ĠT MC
import ant
4 97
` :
Ġperiod ic
s copes
ĠF ragment
og gle
Execution Context
Ġw iphy
Ġe a
Ġwas n
S pi
Ġn u
ĠSh apes
W CHAR
ip addr
Ġtrans forms
MI PI
EAR LY
R ISC
ĠP ASS
ç Ĭ
in active
N aming
ĠQ EMU
it ness
Domain s
Ġ1 90
åĪ ¶
g ICAg
LV DS
Highlight Rules
à §
ps mouse
ĠFORCE INLINE
ĠL iteral
ĠC CU
NEST ED
= #
ist a
CHECK SUM
p Rpc
Ġs light
V DEVICE
Ġinter cept
Ġtr ansp
C RO
c sk
or r
/ )
r usage
source forge
Ġz z
s ctx
ĠB ook
b roken
RECOVER Y
m add
RAT ES
DL S
Ġh ang
Pix map
MEDI ATE
NK q
Ġs coped
R J
5 27
ĠT G
b ch
Ġho le
65 1
GHI JK
In side
n orth
hot plug
( \\
R c
T d
m ipi
DE FL
Ġmonitor ing
ĠT WI
ww n
pre set
H AR
THRO UGH
http Response
unc s
TUN SET
are ncy
ĠW rapper
k log
v ocab
Ġtr ansparent
Enum Value
With in
4 84
I x
5 83
Little Endian
e very
Ġpro duces
FACT ORY
in ventory
Ġattr ib
Ġm ip
sl t
Form ation
z p
B IST
oct et
up stream
Ġattr namespace
ĠIn et
Ġ@ _
em c
Ġalloc ating
Ġide a
ser ializing
Ġcomp ose
ĠU D
Ġri id
ĠS leep
Ġw rote
Ġ\ ""
press ure
Ġam ong
4 31
d out
v io
/*! <
c ale
> }
C oin
User Agent
MA V
SAMPL ING
od o
MO UT
v ortex
()) ->
è¿ Ľ
click ed
ĠDECL SPEC
M req
Ġb as
New Line
T n
FX O
Ġj u
ĉĉĉĉ ĉĉĉĉĉ
Ġo prot
OT P
BE ACON
Ġsh ut
Ġop ens
Web Service
! /
T or
S ampling
f ns
ph andle
G iven
Ġmm VM
Send Message
r ax
99 1
','',' ','','
le ast
Ġwant ed
es ult
US ING
J k
P q
erc ise
Fam semse
}}}} }}}}
iron ments
def ines
sp d
Sub set
sw izzle
AF SEL
tra ffic
GLAPI ENTRY
er a
nil fs
//////////////////////////////////////////////////////////////////////////////////////////////////////////////////////////////////////////////////////////////////////////////////////////////////////////////////////////////////////////////////////////////////////////////////////////////////////////////////////////////////////////////////////////////////////////////////////////////////////////////////////////////////////////////////////////////////////////////////////////////////////////////////////////////////////////////////////////////////////////////////////////////////////////////////////////////////////////////////////////////////////////////////////////////////////////////////////////////////////////////////////////////////////////////////////////////////////////////////////////////////////////////////////////////////////////////////////////////////////////////////////////////////////////////////////////////////////////////////////////////////////////////////////////////////////////////////////////////// ////////////////////////////////////////////////////////////////////////////////////////////////////////////////////////////////////////////////////////////////////////////////////////////////////////////////////////////////////////////////////////////////////////////////////////////////////////////////////////////////////////////////////////////////////////////////////////////////////////////////////////////////////////////////////////////////////////////////////////////////////////////////////////////////////////////////////////////////////////////////////////////////////////////////////////////////////////////////////////////////////////////////////////////////////////////////////////////////////////////////////////////////////////////////////////////////////////////////////////////////////////////////////////////////////////////////////////////////////////////////////////////////////////////////////////////////////////////////////////////////////////////////////////////////////////////////////////////////
Ġun specified
Ġsc heduling
Http Client
N m
de gree
O t
Ġ1 51
cl us
local s
Set String
in finity
cache p
U u
; -
tr usted
te c
mon y
p attrib
Ġs uspended
keys For
R ND
gram mar
PROTOTYPE S
Ġfrag ments
dd d
A cs
A h
Ġsc anning
Ġpro j
67 3
z mm
A IC
un ary
Ġo m
S copes
Tr ailing
Request Marshaller
ĠCA SE
Y ES
ce f
æĶ ¹
Tr unc
CAL C
SH M
ĠOver flow
- '
Ġp np
cl nt
":" \
PIPE LINE
Ġw n
real m
Ġm ention
ank s
ĠBr anch
C art
Privile ge
sp irit
ll db
M ixed
12 51
remove EventListener
optim izer
NE VER
D CE
RAN K
Ġ__ __
CG C
te ardown
ĠHe ight
Ġus able
i ations
api Log
è¯ ¢
Ġ__ ('
Ġunder stand
ce iver
Ġ16 7
al en
Ab out
PR IM
Ġ1 78
F ocused
DIS CONNECT
t q
ic m
ST ype
bl it
ĠWe ak
ĠCol lect
N at
ĠATTRIB UTE
Ġst ar
P J
TRANSM IT
writ ereg
Ġvalid ity
Ð¾ Ð½
Ġ'; '
om an
Icon s
ic c
(" __
IP W
over n
Ġv ext
ĠSo C
wik ipedia
RL ock
Client Rect
fd f
F b
g bl
sk ill
get attr
Get Int
QUFDQT tBQUNBO
CS ID
Ġembed ding
4 55
ĠF DC
_ ))
ĠN AU
num type
ĠR aise
Ġcol lector
TX Q
86 3
Bad Request
st encil
G PT
ps r
AR OUND
ĠDis pose
6 11
Ġ`& `,
[ ].
in l
ĠS AX
View ById
AB L
N RF
Occ urred
00 15
IN DIRECT
Ġ', /*
Ġign oring
U sb
Y AML
String Builder
ĠSn apshot
l kb
Ġ0 7
TR C
56 59
vent s
op l
5 89
U ED
t ions
st an
Pub Key
Q Name
RA MP
tr x
S CH
800 454
ynam ics
sd s
get Selected
LE TION
Health Check
S un
St ages
ĠDis abled
SM N
WR ONG
5 39
ĠAl arm
Ġmt u
par c
Message Box
85 3
) !=
M ip
pro files
Ġun available
Ð¾Ð ´
V pn
ĠM VT
Ġsc if
orn ia
ELEMENT S
B OR
dr ate
F c
de e
b link
y d
CLO SED
Ġcancel led
j q
Ġ3 000
f trace
ary ing
UNIP HIER
test ng
Cre ature
CU BE
Sto red
Ġturn ed
ptr ace
ĠT K
> -
ir da
Not Empty
Ġadv anced
Or Create
69 1
YY Y
87 12
0000000 6
P d
ĠO Auth
Ġto mo
dev link
ug ht
AT S
C AB
Y M
ĠP UT
oc al
Time Stamp
UN ORM
Ġgener ally
×Ļ ×
ĠLZ O
RE STORE
Th ree
un reachable
Ġ16 1
TA PI
track s
J adx
Ġme mo
Par a
0000 08
col lector
pre diction
45 1
Ġdw arf
4 88
ĠI ID
æľ Ł
Ġskip ping
WK UP
Ġv si
ĠS END
ma ker
Ġg a
t olerance
sub system
Mark up
åº ı
AN IM
gl ue
inst alled
Ġnto hs
pc md
ĠB uck
ĠLog ic
S MI
Index er
47 3
Leg al
th an
Ġg x
Ġ3 84
GOT O
Ġ2 06
per ms
v ht
Graph ic
STEP S
Ġv addr
{{{{ {{{{
work ers
Ġbefore Each
h if
pub key
ObjectMeta ApplyConfiguration
Sl ash
ibl ings
L ab
>< ?
Man ual
cl azz
strto ul
æ ¶
BAR RIER
ä¼ ł
æł ¼
Ġh is
11 00000
49 2
{` &
ĠB order
(). (*
insert Before
Size Of
dash board
est imate
ĠSER COM
V j
w id
CUR VE
Ġptr diff
READ ONLY
F oot
[ @
con tributors
Ġde mo
Ġtick et
Ġ// {
Ġx mit
Ġen force
Ġasc ii
i ency
Ġn h
toHaveBeen Called
t al
Ã£ o
Ġtomo yo
O I
] ===
l j
75 8
800 4
ĠV IDE
aut oneg
Ġcontinu ous
F ib
f bi
O CTEON
il ies
Ġm dp
percent age
sp s
max len
Get Device
ĠAss ignment
success ful
E ps
æ º
assert NotNull
div isor
Order ing
W SA
w data
Ġh tt
Ġk time
ĠL HS
Ġp icture
ĠInterrupt edException
ĠSK IP
gr us
IO W
Ġ"= &
color space
Ġk ube
ĠD if
ĠUSART x
H h
Ġhost s
Jadx Decompiler
d dev
AD X
ec x
Delete Options
Ġ(# )
Ġidentify ing
R TE
def late
M ING
ST V
Proto buf
int c
ĠS OL
Require ments
Ġbl as
[...]
